{
  "src_word2id": {
    "<pad>": 0,
    "<s>": 1,
    "</s>": 2,
    "<unk>": 3,
    "▁به": 4,
    "ی": 5,
    "ه": 6,
    "▁در": 7,
    "▁از": 8,
    "▁با": 9,
    "▁": 10,
    "▁دادگاه": 11,
    "▁.": 12,
    "▁می": 13,
    "▁که": 14,
    "▁صادر": 15,
    "▁قانون": 16,
    "▁را": 17,
    "▁است": 18,
    "▁ماده": 19,
    "▁آقای": 20,
    "▁بر": 21,
    "_": 22,
    "▁این": 23,
    "▁دادنامه": 24,
    "▁رأی": 25,
    "▁دادرسی": 26,
    "▁تجدیدنظرخواه": 27,
    "است": 28,
    "▁پرونده": 29,
    "▁آن": 30,
    "▁عمومی": 31,
    "▁باشد": 32,
    "▁تجدیدنظر": 33,
    "▁شماره": 34,
    "▁تهران": 35,
    "▁خواهان": 36,
    "▁الف": 37,
    "▁شعبه": 38,
    "▁دعوی": 39,
    "▁نظر": 40,
    "ات": 41,
    "▁شده": 42,
    "▁خصوص": 43,
    "▁آیین": 44,
    "▁حکم": 45,
    "▁قابل": 46,
    "▁نماید": 47,
    "ت": 48,
    "▁های": 49,
    "▁قرار": 50,
    "▁مورخ": 51,
    "▁متهم": 52,
    "▁اعلام": 53,
    "▁مدنی": 54,
    "▁یک": 55,
    "▁م": 56,
    "▁خواسته": 57,
    "▁توجه": 58,
    "ا": 59,
    "▁پرداخت": 60,
    "▁روز": 61,
    "▁خوانده": 62,
    "▁استناد": 63,
    "▁نسبت": 64,
    "▁اینک": 65,
    "▁انقلاب": 66,
    "▁نموده": 67,
    "▁ظرف": 68,
    "▁وکالت": 69,
    "▁استان": 70,
    "▁رد": 71,
    "▁عدم": 72,
    "▁پس": 73,
    "▁رسیدگی": 74,
    "▁ابلاغ": 75,
    "▁خانم": 76,
    "ن": 77,
    "ان": 78,
    "▁طرفیت": 79,
    "▁فرزند": 80,
    "▁اعتراض": 81,
    "▁ریال": 82,
    "▁مستندا": 83,
    "▁موضوع": 84,
    "▁گردد": 85,
    "▁موجب": 86,
    "▁اتهام": 87,
    "▁صدور": 88,
    "▁محکوم": 89,
    "▁لذا": 90,
    "▁حق": 91,
    "▁مجازات": 92,
    "▁تاریخ": 93,
    "▁بوده": 94,
    "▁مورد": 95,
    "▁امور": 96,
    "▁حضور": 97,
    "▁نیز": 98,
    "▁وی": 99,
    "س": 100,
    "▁قطعی": 101,
    "▁جزای": 102,
    "▁دادخواست": 103,
    "▁شاکی": 104,
    "▁کیفر": 105,
    "▁بیست": 106,
    "▁ثبت": 107,
    "▁مذکور": 108,
    "م": 109,
    "▁گردیده": 110,
    "▁محتوی": 111,
    "▁جهت": 112,
    "▁بند": 113,
    "▁قانونی": 114,
    "▁نمی": 115,
    "▁مبلغ": 116,
    "▁محترم": 117,
    "¬": 118,
    "▁سال": 119,
    "▁تأیید": 120,
    "▁شکایت": 121,
    "▁وارد": 122,
    "نقض": 123,
    "▁محاکم": 124,
    "▁مواد": 125,
    "▁ضمن": 126,
    "▁اسلامی": 127,
    "▁صلاحیت": 128,
    "ین": 129,
    "▁بدو": 130,
    "▁دارد": 131,
    "▁میلیون": 132,
    "▁سند": 133,
    "▁حب": 134,
    "ب": 135,
    "▁وکیل": 136,
    "▁خود": 137,
    "▁ا": 138,
    "▁شرح": 139,
    "▁شود": 140,
    "▁چک": 141,
    "▁غیر": 142,
    "▁لح": 143,
    "▁دلیل": 144,
    "اظ": 145,
    "▁دو": 146,
    "▁دادسرا": 147,
    "▁عنایت": 148,
    "▁تقدیم": 149,
    "تشخیص": 150,
    "▁ایراد": 151,
    "▁صورت": 152,
    "▁یا": 153,
    "▁اصل": 154,
    "▁حقوقی": 155,
    "▁ها": 156,
    "د": 157,
    "▁ب": 158,
    "▁محکومیت": 159,
    "▁دیوان": 160,
    "▁برای": 161,
    "▁اظهارات": 162,
    "▁دایر": 163,
    "ش": 164,
    "▁مطالب": 165,
    "▁هر": 166,
    "تحمل": 167,
    "▁نقد": 168,
    "▁عنوان": 169,
    "▁شرکت": 170,
    "▁ناحی": 171,
    "▁بزه": 172,
    "▁اساس": 173,
    "▁مبن": 174,
    "▁اول": 175,
    "▁کرده": 176,
    "▁رسمی": 177,
    "▁عمل": 178,
    "▁داشته": 179,
    "▁فوق": 180,
    "▁طرفین": 181,
    "▁نامه": 182,
    "▁ارائ": 183,
    "ع": 184,
    "▁ردیف": 185,
    "▁کشور": 186,
    "▁لایحه": 187,
    "▁نیست": 188,
    "▁قرارداد": 189,
    "▁معترض": 190,
    "▁درخواست": 191,
    "▁اجرای": 192,
    "که": 193,
    "خواسته": 194,
    "▁علیه": 195,
    "▁زوج": 196,
    "▁محرز": 197,
    "▁زوجه": 198,
    "▁نام": 199,
    "▁اند": 200,
    "▁مقرر": 201,
    "▁اوراق": 202,
    "▁داده": 203,
    "▁مرجع": 204,
    "▁سوی": 205,
    "ق": 206,
    "▁تعزیر": 207,
    "▁موجه": 208,
    "▁ارجاع": 209,
    "▁عالی": 210,
    "▁مدت": 211,
    "▁پلاک": 212,
    "▁جلسه": 213,
    "▁ماه": 214,
    "▁مندرج": 215,
    "▁دیگر": 216,
    "▁مال": 217,
    "▁نشده": 218,
    "▁اعاد": 219,
    "▁ارسال": 220,
    "▁اختلاف": 221,
    "ایت": 222,
    "▁حسب": 223,
    "یت": 224,
    "▁کیفرخواست": 225,
    "▁علی": 226,
    "▁عنه": 227,
    "▁خسارت": 228,
    "▁دولت": 229,
    "این": 230,
    "▁ابطال": 231,
    "▁واخواهی": 232,
    "▁ملک": 233,
    "می": 234,
    "▁تا": 235,
    "▁نامبرد": 236,
    "ندارد": 237,
    "▁اداره": 238,
    "▁هزینه": 239,
    "▁خواندگان": 240,
    "▁احراز": 241,
    "▁مطابق": 242,
    "بت": 243,
    "▁من": 244,
    "▁اسناد": 245,
    "▁برائت": 246,
    "▁بنابر": 247,
    "▁انجام": 248,
    "▁دوم": 249,
    "▁ف": 250,
    "▁سه": 251,
    "▁رع": 252,
    "▁موصوف": 253,
    "▁مصوب": 254,
    "▁زیرا": 255,
    "▁ضرب": 256,
    "▁ال": 257,
    "▁هم": 258,
    "▁اقدام": 259,
    "▁داور": 260,
    "▁بودن": 261,
    "▁ادعای": 262,
    "▁تبصره": 263,
    "▁مطروح": 264,
    "▁مرات": 265,
    "▁ت": 266,
    "▁گزارش": 267,
    "▁جرم": 268,
    "ند": 269,
    "▁انتقال": 270,
    "▁س": 271,
    "▁بانک": 272,
    "باشد": 273,
    "▁ای": 274,
    "▁الزام": 275,
    "ماع": 276,
    "▁تعیین": 277,
    "▁خسارات": 278,
    "▁مهلت": 279,
    "▁دفتر": 280,
    "▁سایر": 281,
    "▁مفاد": 282,
    "▁تنظیم": 283,
    "▁تقاضای": 284,
    "▁ابراز": 285,
    "شده": 286,
    "▁ملاحظ": 287,
    "▁بخش": 288,
    "▁واقع": 289,
    "▁قسمت": 290,
    "▁نظریه": 291,
    "های": 292,
    "▁پنج": 293,
    "▁طرح": 294,
    "▁طی": 295,
    "گی": 296,
    "▁شش": 297,
    "▁وجود": 298,
    "▁دانسته": 299,
    "▁فاقد": 300,
    "▁حیث": 301,
    "▁استدلال": 302,
    "▁گواهی": 303,
    "▁ح": 304,
    "▁وجه": 305,
    "▁مقررا": 306,
    "▁نبوده": 307,
    "▁غیابی": 308,
    "▁محل": 309,
    "▁امر": 310,
    "▁صرف": 311,
    "▁طبق": 312,
    "▁موجود": 313,
    "▁مالکیت": 314,
    "▁بی": 315,
    "▁باب": 316,
    "▁سابق": 317,
    "▁تمکین": 318,
    "▁اثبات": 319,
    "توسط": 320,
    "▁شهرستان": 321,
    "ل": 322,
    "▁بطلا": 323,
    "▁اعتبار": 324,
    "▁استفاده": 325,
    "ر": 326,
    "▁اجاره": 327,
    "▁اظهار": 328,
    "▁ش": 329,
    "یشان": 330,
    "▁همان": 331,
    "▁ر": 332,
    "خصوص": 333,
    "▁دفاعیات": 334,
    "▁فقر": 335,
    "▁انتساب": 336,
    "▁بنا": 337,
    "▁عین": 338,
    "▁سرقت": 339,
    "▁نداشته": 340,
    "ء": 341,
    "▁تصرف": 342,
    "▁هیچ": 343,
    "▁مشترک": 344,
    "▁ننموده": 345,
    "▁برابر": 346,
    "▁مرحله": 347,
    "▁وقو": 348,
    "▁انتظا": 349,
    "▁کارشناس": 350,
    "▁قبل": 351,
    "▁د": 352,
    "▁بین": 353,
    "▁تأخیر": 354,
    "▁تحویل": 355,
    "▁گرفته": 356,
    "▁حل": 357,
    "▁مربوط": 358,
    "شلاق": 359,
    "▁مستندات": 360,
    "▁او": 361,
    "▁تشکیل": 362,
    "▁نگردیده": 363,
    "رسی": 364,
    "▁منزل": 365,
    "▁کامل": 366,
    "▁تأدی": 367,
    "▁دلایل": 368,
    "▁فسخ": 369,
    "▁پذیر": 370,
    "▁مزبور": 371,
    "▁طلاق": 372,
    "▁ن": 373,
    "▁موجبات": 374,
    "▁ل": 375,
    "▁مرقوم": 376,
    "▁کلاهبردار": 377,
    "ید": 378,
    "▁عمد": 379,
    "▁کار": 380,
    "▁تغییر": 381,
    "▁تحقیقات": 382,
    "▁کلاس": 383,
    "▁ثالث": 384,
    "دیه": 385,
    "▁دعوای": 386,
    "▁زمان": 387,
    "▁رابطه": 388,
    "▁اقرار": 389,
    "▁فروش": 390,
    "▁دفاع": 391,
    "▁هزار": 392,
    "▁اصلاح": 393,
    "▁میزان": 394,
    "▁حاضر": 395,
    "▁طریق": 396,
    "▁هیأت": 397,
    "▁مشارالیه": 398,
    "▁نحو": 399,
    "▁معامل": 400,
    "نامه": 401,
    "▁محسوب": 402,
    "▁تومان": 403,
    "▁تو": 404,
    "▁موارد": 405,
    "▁احتساب": 406,
    "▁مت": 407,
    "▁اموال": 408,
    "▁صح": 409,
    "▁خارج": 410,
    "▁آمده": 411,
    "▁مستند": 412,
    "▁فرجام": 413,
    "▁ثابت": 414,
    "▁نفق": 415,
    "▁جعل": 416,
    "▁عقد": 417,
    "▁توضیح": 418,
    "لذا": 419,
    "▁مدارک": 420,
    "▁هذا": 421,
    "▁ارتکاب": 422,
    "▁کلی": 423,
    "▁زندگی": 424,
    "▁کند": 425,
    "▁قضایی": 426,
    "▁موا": 427,
    "▁دادگستر": 428,
    "▁نتیج": 429,
    "▁چنین": 430,
    "▁شهرداری": 431,
    "▁یافته": 432,
    "▁اخذ": 433,
    "▁موکل": 434,
    "▁نمایند": 435,
    "▁مسلم": 436,
    "زین": 437,
    "▁ده": 438,
    "ثر": 439,
    "ثری": 440,
    "▁خواهد": 441,
    "▁فیه": 442,
    "▁ولی": 443,
    "▁اقام": 444,
    "▁بعد": 445,
    "▁چ": 446,
    "▁احوال": 447,
    "▁خانواد": 448,
    "▁همین": 449,
    "▁تجدید": 450,
    "▁تحت": 451,
    "▁نکرده": 452,
    "طبق": 453,
    "▁وفق": 454,
    "▁پزشک": 455,
    "▁طرف": 456,
    "▁وصف": 457,
    "▁قطع": 458,
    "▁ندانسته": 459,
    "▁اشکال": 460,
    "▁اجرت": 461,
    "▁الذکر": 462,
    "▁تجدیدنظرخوانده": 463,
    "▁دستور": 464,
    "▁اعسار": 465,
    "▁قرائن": 466,
    "انه": 467,
    "▁دارای": 468,
    "▁فی": 469,
    "بود": 470,
    "▁استوار": 471,
    "▁حقوق": 472,
    "▁بلا": 473,
    "یه": 474,
    "▁مراجع": 475,
    "▁نمود": 476,
    "▁مالک": 477,
    "▁ج": 478,
    "به": 479,
    "▁تعقیب": 480,
    "▁ازدواج": 481,
    "▁مستأجر": 482,
    "▁شهود": 483,
    "▁رو": 484,
    "▁صندو": 485,
    "▁جمل": 486,
    "▁مبایعه": 487,
    "طرح": 488,
    "▁مقام": 489,
    "▁اعمال": 490,
    "▁مجموع": 491,
    "▁توجها": 492,
    "▁عاد": 493,
    "▁جهات": 494,
    "▁دست": 495,
    "▁ثانی": 496,
    "▁ما": 497,
    "▁وصول": 498,
    "▁اولا": 499,
    "▁مزاحمت": 500,
    "▁آپارتمان": 501,
    "ف": 502,
    "▁دانگ": 503,
    "▁چو": 504,
    "▁امارات": 505,
    "▁یاد": 506,
    "▁ک": 507,
    "▁بدین": 508,
    "▁سوم": 509,
    "▁زمین": 510,
    "▁دریافت": 511,
    "له": 512,
    "▁شایست": 513,
    "▁توان": 514,
    "هم": 515,
    "▁المثل": 516,
    "▁دی": 517,
    "▁پیوست": 518,
    "▁مشارکت": 519,
    "▁مانحن": 520,
    "▁اصول": 521,
    "▁تلقی": 522,
    "انت": 523,
    "▁تصمیم": 524,
    "▁صحیح": 525,
    "▁حال": 526,
    "▁چهار": 527,
    "▁سی": 528,
    "▁محکمه": 529,
    "▁پیش": 530,
    "▁شناسنامه": 531,
    "رداد": 532,
    "نماید": 533,
    "▁آزاد": 534,
    "▁علت": 535,
    "▁الوکال": 536,
    "▁تلفن": 537,
    "▁فرع": 538,
    "فع": 539,
    "▁فرا": 540,
    "▁ترک": 541,
    "ای": 542,
    "ضمن": 543,
    "▁درصد": 544,
    "چه": 545,
    "▁لازم": 546,
    "▁استعلام": 547,
    "▁ناشی": 548,
    "▁دلالت": 549,
    "▁مدعی": 550,
    "▁و": 551,
    "▁مشروب": 552,
    "▁فقد": 553,
    "▁مغازه": 554,
    "▁خاص": 555,
    "خانه": 556,
    "▁ایام": 557,
    "▁خواهی": 558,
    "▁اصدار": 559,
    "هین": 560,
    "▁کارشناسی": 561,
    "▁تأمین": 562,
    "▁انطباق": 563,
    "▁ذیل": 564,
    "مابین": 565,
    "▁تخفیف": 566,
    "ون": 567,
    "ط": 568,
    "▁دستگاه": 569,
    "▁مشاع": 570,
    "▁روی": 571,
    "▁نفر": 572,
    "▁راجع": 573,
    "▁جرح": 574,
    "▁مرتکب": 575,
    "▁اجرایی": 576,
    "▁عدالت": 577,
    "▁مجعول": 578,
    "▁ایران": 579,
    "▁تهدید": 580,
    "▁امکان": 581,
    "▁مجدد": 582,
    "▁اداری": 583,
    "▁پاسخ": 584,
    "▁حاصل": 585,
    "▁تخریب": 586,
    "▁عهد": 587,
    "▁واحد": 588,
    "▁املاک": 589,
    "▁شد": 590,
    "▁تعهد": 591,
    "▁حساب": 592,
    "▁بزهکاری": 593,
    "ده": 594,
    "▁خودرو": 595,
    "▁سازمان": 596,
    "▁شرط": 597,
    "▁صد": 598,
    "▁نیامد": 599,
    "▁بیان": 600,
    "نی": 601,
    "▁نه": 602,
    "▁ایجاد": 603,
    "▁حکایت": 604,
    "▁شخص": 605,
    "▁اما": 606,
    "پ": 607,
    "▁دعوا": 608,
    "▁دهد": 609,
    "▁ایجا": 610,
    "رت": 611,
    "▁گونه": 612,
    "▁ید": 613,
    "▁قید": 614,
    "▁اخیر": 615,
    "▁وقت": 616,
    "▁تشریفات": 617,
    "▁منعکس": 618,
    "▁وکلا": 619,
    "▁ماهیت": 620,
    "▁شرایط": 621,
    "وجه": 622,
    "▁توافق": 623,
    "ری": 624,
    "▁تخلی": 625,
    "گان": 626,
    "هذا": 627,
    "▁مرحوم": 628,
    "▁نخست": 629,
    "▁هفت": 630,
    "▁احکام": 631,
    "قوق": 632,
    "▁شهر": 633,
    "اء": 634,
    "▁ورود": 635,
    "▁انض": 636,
    "ابت": 637,
    "▁راست": 638,
    "اه": 639,
    "▁گردید": 640,
    "▁مالی": 641,
    "▁مرکز": 642,
    "▁جنب": 643,
    "▁مسروق": 644,
    "▁علاو": 645,
    "▁قبول": 646,
    "▁ق": 647,
    "▁مهریه": 648,
    "مام": 649,
    "▁سپ": 650,
    "▁معرف": 651,
    "▁شهادت": 652,
    "▁شورا": 653,
    "▁نمودن": 654,
    "▁شدن": 655,
    "▁تجویز": 656,
    "▁بایست": 657,
    "▁صالح": 658,
    "▁کل": 659,
    "▁ساز": 660,
    "▁امانت": 661,
    "▁تعرفه": 662,
    "▁مباد": 663,
    "▁نداده": 664,
    "▁سهم": 665,
    "▁واخواه": 666,
    "راضی": 667,
    "▁زوجی": 668,
    "▁قاچاق": 669,
    "▁الکل": 670,
    "▁بیمه": 671,
    "▁هیئت": 672,
    "▁متن": 673,
    "▁چه": 674,
    "▁آ": 675,
    "▁سر": 676,
    "▁تجار": 677,
    "▁جل": 678,
    "یل": 679,
    "▁بازداشت": 680,
    "بس": 681,
    "▁تکلیف": 682,
    "▁تحصیل": 683,
    "▁کیفیت": 684,
    "کن": 685,
    "▁دار": 686,
    "و": 687,
    "گردد": 688,
    "▁شک": 689,
    "▁صریح": 690,
    "▁جدید": 691,
    "▁تحق": 692,
    "▁صدم": 693,
    "▁فر": 694,
    "▁تصویر": 695,
    "▁برده": 696,
    "▁خریدار": 697,
    "▁کرد": 698,
    "▁حد": 699,
    "▁موافق": 700,
    "▁شکا": 701,
    "▁ثمن": 702,
    "▁اختیار": 703,
    "▁تجارت": 704,
    "ست": 705,
    "ناظر": 706,
    "▁متعلق": 707,
    "وزه": 708,
    "▁دارند": 709,
    "▁مدیر": 710,
    "▁وضعیت": 711,
    "▁گواه": 712,
    "▁طرفی": 713,
    "شد": 714,
    "رالذکر": 715,
    "▁منع": 716,
    "▁رس": 717,
    "▁شغل": 718,
    "▁ع": 719,
    "در": 720,
    "▁قصد": 721,
    "▁ماهو": 722,
    "▁شرعی": 723,
    "▁رضایت": 724,
    "▁مصدق": 725,
    "▁اختلا": 726,
    "▁لغایت": 727,
    "▁داشتن": 728,
    "▁صفح": 729,
    "▁قیمت": 730,
    "▁بدل": 731,
    "▁اشخاص": 732,
    "▁مرا": 733,
    "یکن": 734,
    "▁توقیف": 735,
    "▁معمول": 736,
    "▁مشمول": 737,
    "▁ادعا": 738,
    "▁خویش": 739,
    "▁ارزش": 740,
    "▁همچن": 741,
    "▁چند": 742,
    "▁رغ": 743,
    "▁همگی": 744,
    "▁کننده": 745,
    "▁مکلف": 746,
    "▁جامع": 747,
    "▁تجدیدنظرخواهان": 748,
    "▁کافی": 749,
    "قه": 750,
    "▁موجر": 751,
    "قوم": 752,
    "میع": 753,
    "▁دین": 754,
    "▁کشف": 755,
    "دامه": 756,
    "▁ذکر": 757,
    "▁عدوان": 758,
    "ابط": 759,
    "▁رانند": 760,
    "حل": 761,
    "▁معین": 762,
    "▁دادیار": 763,
    "▁تحقیق": 764,
    "▁جزء": 765,
    "▁دادستان": 766,
    "▁انکار": 767,
    "▁فرض": 768,
    "ها": 769,
    "▁خرید": 770,
    "▁خلع": 771,
    "▁امضاء": 772,
    "▁لوایح": 773,
    "▁نفع": 774,
    "توجه": 775,
    "▁اس": 776,
    "▁اگر": 777,
    "▁اهل": 778,
    "▁ساکن": 779,
    "▁خلاف": 780,
    "▁کمیسیون": 781,
    "▁نکاح": 782,
    "▁واصل": 783,
    "▁مجرمیت": 784,
    "▁اصلاحی": 785,
    "▁مصاد": 786,
    "▁پدر": 787,
    "▁متولد": 788,
    "▁بازپرس": 789,
    "▁همسرش": 790,
    "▁تبد": 791,
    "اند": 792,
    "▁ملا": 793,
    "▁چهارم": 794,
    "▁سمت": 795,
    "اهم": 796,
    "▁هشت": 797,
    "▁اظهارنظر": 798,
    "یق": 799,
    "▁ترتیب": 800,
    "▁نوع": 801,
    "▁استنباط": 802,
    "▁مبانی": 803,
    "▁بل": 804,
    "▁واگذار": 805,
    "▁مدافعات": 806,
    "▁مسکن": 807,
    "▁خصوصی": 808,
    "▁چنان": 809,
    "گاه": 810,
    "▁ادله": 811,
    "▁کاربر": 812,
    "▁اصداری": 813,
    "▁خدشه": 814,
    "▁اجتماع": 815,
    "▁فعل": 816,
    "▁فوت": 817,
    "▁عضو": 818,
    "▁مردود": 819,
    "▁حض": 820,
    "▁صادرکنند": 821,
    "▁اثر": 822,
    "▁رهن": 823,
    "پس": 824,
    "گونه": 825,
    "▁حالی": 826,
    "▁بیع": 827,
    "▁متر": 828,
    "▁نیم": 829,
    "▁اجرا": 830,
    "▁طور": 831,
    "▁قواعد": 832,
    "▁کسب": 833,
    "▁قتل": 834,
    "▁کردن": 835,
    "▁ام": 836,
    "ک": 837,
    "ال": 838,
    "▁نامشروع": 839,
    "▁نزد": 840,
    "▁منظور": 841,
    "▁سهام": 842,
    "▁افترا": 843,
    "▁برگ": 844,
    "▁نهایت": 845,
    "یات": 846,
    "▁سن": 847,
    "▁عملیات": 848,
    "صد": 849,
    "▁احداث": 850,
    "▁همسر": 851,
    "▁همراه": 852,
    "▁خ": 853,
    "▁تهی": 854,
    "▁مصرف": 855,
    "دی": 856,
    "▁ارش": 857,
    "▁نفی": 858,
    "▁مسئولیت": 859,
    "▁مع": 860,
    "▁اشتباه": 861,
    "▁نظام": 862,
    "▁مشاور": 863,
    "▁جمع": 864,
    "▁انفاق": 865,
    "داری": 866,
    "▁برخی": 867,
    "▁گذشت": 868,
    "▁شوهر": 869,
    "▁دعاوی": 870,
    "▁دفاعی": 871,
    "▁منطقه": 872,
    "▁پنجم": 873,
    "▁تقسیم": 874,
    "▁تخلف": 875,
    "▁ارتباط": 876,
    "▁باقی": 877,
    "▁اعتراضی": 878,
    "▁جمهور": 879,
    "▁تسلیم": 880,
    "▁متعاقب": 881,
    "▁مشخص": 882,
    "▁ذی": 883,
    "▁دائم": 884,
    "▁قوا": 885,
    "عادل": 886,
    "▁اطلاع": 887,
    "▁آئین": 888,
    "▁متقاضی": 889,
    "▁وسی": 890,
    "▁حمل": 891,
    "▁اقدامات": 892,
    "▁وجوه": 893,
    "▁اولی": 894,
    "▁وجاهت": 895,
    "وحد": 896,
    "▁اقامت": 897,
    "▁عبارت": 898,
    "▁تنفیذ": 899,
    "▁تفکیک": 900,
    "▁اتومبیل": 901,
    "بیع": 902,
    "▁مناف": 903,
    "▁داد": 904,
    "▁مخدو": 905,
    "▁منجر": 906,
    "▁افراد": 907,
    "▁نگرفته": 908,
    "واند": 909,
    "شدید": 910,
    "سجلی": 911,
    "▁معاون": 912,
    "▁حقی": 913,
    "▁داشت": 914,
    "▁شکل": 915,
    "ررسی": 916,
    "نظر": 917,
    "▁کالا": 918,
    "▁اتهامات": 919,
    "▁وضع": 920,
    "غال": 921,
    "▁معنون": 922,
    "▁خی": 923,
    "ره": 924,
    "▁علم": 925,
    "▁ممانعت": 926,
    "▁ساختمان": 927,
    "حاشی": 928,
    "▁نگهداری": 929,
    "تا": 930,
    "▁قبال": 931,
    "▁بنام": 932,
    "▁شق": 933,
    "▁اشاره": 934,
    "▁قرائ": 935,
    "▁قضائی": 936,
    "▁دویست": 937,
    "▁مفهوم": 938,
    "▁گیرد": 939,
    "▁خواه": 940,
    "▁تمام": 941,
    "خواهی": 942,
    "▁تعهدات": 943,
    "▁موقوف": 944,
    "قط": 945,
    "نین": 946,
    "▁گرفتن": 947,
    "▁اتخاذ": 948,
    "▁اجرائی": 949,
    "▁نقص": 950,
    "ئ": 951,
    "ز": 952,
    "▁اقار": 953,
    "▁مستقل": 954,
    "▁تعداد": 955,
    "وی": 956,
    "▁دعو": 957,
    "▁اشت": 958,
    "▁محق": 959,
    "▁منته": 960,
    "▁مبنای": 961,
    "▁رف": 962,
    "▁وظایف": 963,
    "▁مختلف": 964,
    "▁زن": 965,
    "▁توضیحات": 966,
    "▁صدمات": 967,
    "▁طفل": 968,
    "▁مدلول": 969,
    "▁مدیریت": 970,
    "▁خیا": 971,
    "▁عدد": 972,
    "▁اج": 973,
    "▁نیاز": 974,
    "▁ضرر": 975,
    "فته": 976,
    "▁منتسب": 977,
    "▁صراحت": 978,
    "▁یکدیگر": 979,
    "▁جریان": 980,
    "▁صلح": 981,
    "▁قراردادی": 982,
    "ث": 983,
    "▁استحقاق": 984,
    "▁مدرک": 985,
    "▁قو": 986,
    "ور": 987,
    "کان": 988,
    "بنی": 989,
    "▁تصریح": 990,
    "▁اینجانب": 991,
    "▁نیاورده": 992,
    "▁جرایم": 993,
    "▁التفات": 994,
    "▁باش": 995,
    "▁موقت": 996,
    "▁عرض": 997,
    "قات": 998,
    "آلا": 999,
    "صحاب": 1000,
    "▁تقسی": 1001,
    "▁مشخصات": 1002,
    "▁مسکو": 1003,
    "▁پ": 1004,
    "▁مکشوف": 1005,
    "▁ابرا": 1006,
    "شود": 1007,
    "▁مس": 1008,
    "▁کبود": 1009,
    "▁خانه": 1010,
    "شهر": 1011,
    "▁پایان": 1012,
    "▁پانصد": 1013,
    "▁متنازع": 1014,
    "▁کشاورز": 1015,
    "بط": 1016,
    "▁مدلل": 1017,
    "▁خواستار": 1018,
    "▁ار": 1019,
    "▁مو": 1020,
    "رد": 1021,
    "▁لک": 1022,
    "▁وح": 1023,
    "▁اخطاریه": 1024,
    "▁پذیرفته": 1025,
    "▁ندار": 1026,
    "یر": 1027,
    "▁یکصد": 1028,
    "گر": 1029,
    "▁قض": 1030,
    "▁مورث": 1031,
    "▁مقابل": 1032,
    "▁مأمور": 1033,
    "▁چرا": 1034,
    "▁شهرت": 1035,
    "▁داری": 1036,
    "▁نگه": 1037,
    "▁انتخاب": 1038,
    "▁محمول": 1039,
    "▁حذ": 1040,
    "ضاع": 1041,
    "▁مجلس": 1042,
    "▁دیوار": 1043,
    "دت": 1044,
    "▁دا": 1045,
    "▁ساخت": 1046,
    "ار": 1047,
    "▁مسترد": 1048,
    "▁جانب": 1049,
    "▁کسر": 1050,
    "▁واحده": 1051,
    "▁داخل": 1052,
    "▁تجدیدنظرخوا": 1053,
    "▁مواجه": 1054,
    "▁مصون": 1055,
    "▁حاکی": 1056,
    "را": 1057,
    "شان": 1058,
    "▁دادن": 1059,
    "▁پرو": 1060,
    "▁مقدمات": 1061,
    "▁کارشناسان": 1062,
    "▁انقضا": 1063,
    "▁مدرکی": 1064,
    "▁مشتکی": 1065,
    "یعن": 1066,
    "▁تبر": 1067,
    "▁تولد": 1068,
    "صرفا": 1069,
    "ارد": 1070,
    "▁مضاف": 1071,
    "▁طول": 1072,
    "▁حدود": 1073,
    "▁مانده": 1074,
    "نهای": 1075,
    "▁ایفا": 1076,
    "▁مب": 1077,
    "▁مقدم": 1078,
    "▁عل": 1079,
    "▁حارصه": 1080,
    "▁تعلیق": 1081,
    "▁دستگیر": 1082,
    "▁مستحق": 1083,
    "▁سوء": 1084,
    "▁نخواهد": 1085,
    "▁مخالف": 1086,
    "▁دائر": 1087,
    "▁درآمدها": 1088,
    "▁مانع": 1089,
    "▁مادر": 1090,
    "▁هشتاد": 1091,
    "ستلز": 1092,
    "▁بود": 1093,
    "▁ماد": 1094,
    "▁مترمربع": 1095,
    "شمول": 1096,
    "▁هنگام": 1097,
    "وط": 1098,
    "▁محتو": 1099,
    "▁مأموری": 1100,
    "▁نکاحی": 1101,
    "▁حادثه": 1102,
    "▁ملی": 1103,
    "▁قاعد": 1104,
    "▁سازد": 1105,
    "▁الحاقی": 1106,
    "▁فعلی": 1107,
    "▁آورد": 1108,
    "▁جراح": 1109,
    "▁مقتضی": 1110,
    "▁رسیده": 1111,
    "▁فرزندان": 1112,
    "▁رونوشت": 1113,
    "رعای": 1114,
    "▁ذمه": 1115,
    "ذ": 1116,
    "▁ارز": 1117,
    "▁مدا": 1118,
    "▁کمتر": 1119,
    "▁فعالیت": 1120,
    "▁زیر": 1121,
    "جاری": 1122,
    "▁متعدد": 1123,
    "▁اذن": 1124,
    "▁تنها": 1125,
    "شروع": 1126,
    "واسط": 1127,
    "▁پای": 1128,
    "خلاف": 1129,
    "▁مشارالیها": 1130,
    "▁گسیخت": 1131,
    "▁منتقل": 1132,
    "حت": 1133,
    "▁مطلع": 1134,
    "▁کف": 1135,
    "▁مض": 1136,
    "▁جهیزیه": 1137,
    "▁مطابقت": 1138,
    "▁شخصی": 1139,
    "▁مجاز": 1140,
    "▁تکمیل": 1141,
    "▁هفتاد": 1142,
    "▁جز": 1143,
    "پی": 1144,
    "محل": 1145,
    "▁وا": 1146,
    "▁کارت": 1147,
    "▁وظ": 1148,
    "ج": 1149,
    "▁بالا": 1150,
    "▁نظامی": 1151,
    "▁متوفی": 1152,
    "▁نیرو": 1153,
    "اساس": 1154,
    "▁اجا": 1155,
    "تر": 1156,
    "سته": 1157,
    "▁حکومت": 1158,
    "احت": 1159,
    "▁بدن": 1160,
    "▁نمایندگ": 1161,
    "مجاز": 1162,
    "▁صاحب": 1163,
    "▁معوق": 1164,
    "▁زیان": 1165,
    "▁ارتشا": 1166,
    "▁اسلام": 1167,
    "▁مربع": 1168,
    "▁واقعی": 1169,
    "از": 1170,
    "▁حین": 1171,
    "▁ری": 1172,
    "▁تصادف": 1173,
    "▁مالکین": 1174,
    "▁واجد": 1175,
    "▁زراع": 1176,
    "ستان": 1177,
    "▁دانستن": 1178,
    "▁دال": 1179,
    "▁تصرفات": 1180,
    "▁اشعار": 1181,
    "دنی": 1182,
    "▁شرب": 1183,
    "▁اصلاحات": 1184,
    "یفه": 1185,
    "دارد": 1186,
    "▁مست": 1187,
    "▁طلا": 1188,
    "▁ممیز": 1189,
    "مکن": 1190,
    "▁گذار": 1191,
    "حصول": 1192,
    "▁ه": 1193,
    "▁اضاف": 1194,
    "▁آنچ": 1195,
    "▁سبب": 1196,
    "▁تقلی": 1197,
    "▁تودیع": 1198,
    "امتنا": 1199,
    "▁درجه": 1200,
    "اده": 1201,
    "▁علامت": 1202,
    "زه": 1203,
    "▁مجرمانه": 1204,
    "ستند": 1205,
    "▁حما": 1206,
    "▁نقل": 1207,
    "▁آثار": 1208,
    "▁گوش": 1209,
    "فیه": 1210,
    "▁منتف": 1211,
    "لی": 1212,
    "▁پر": 1213,
    "▁اصالت": 1214,
    "▁خانوادگ": 1215,
    "▁مغایر": 1216,
    "▁لزوم": 1217,
    "▁افراز": 1218,
    "بوط": 1219,
    "▁راستا": 1220,
    "▁ض": 1221,
    "▁فرار": 1222,
    "▁عسر": 1223,
    "▁درج": 1224,
    "▁تعاون": 1225,
    "▁تبع": 1226,
    "با": 1227,
    "▁واریز": 1228,
    "▁ورشکستگ": 1229,
    "▁مثبت": 1230,
    "▁الی": 1231,
    "▁آب": 1232,
    "▁شعب": 1233,
    "▁محدوده": 1234,
    "▁شخصیت": 1235,
    "یک": 1236,
    "▁چاقو": 1237,
    "▁عام": 1238,
    "▁بیش": 1239,
    "▁ازجم": 1240,
    "▁مستفاد": 1241,
    "معلوم": 1242,
    "▁خروج": 1243,
    "ختم": 1244,
    "▁درحالی": 1245,
    "▁حاکم": 1246,
    "▁وزارت": 1247,
    "▁امانی": 1248,
    "▁اع": 1249,
    "یم": 1250,
    "▁ماهی": 1251,
    "▁اقساط": 1252,
    "▁آنجا": 1253,
    "▁آباد": 1254,
    "▁کدام": 1255,
    "انی": 1256,
    "▁تقصیر": 1257,
    "▁مطلب": 1258,
    "طی": 1259,
    "▁سرق": 1260,
    "▁احتیا": 1261,
    "▁مناسب": 1262,
    "▁فروشند": 1263,
    "▁مرد": 1264,
    "▁پارکینگ": 1265,
    "حق": 1266,
    "▁داوران": 1267,
    "▁صدر": 1268,
    "▁قم": 1269,
    "▁وسایل": 1270,
    "▁اخیرالذکر": 1271,
    "▁ص": 1272,
    "▁استشهادیه": 1273,
    "▁بهداشت": 1274,
    "▁اش": 1275,
    "▁زمانی": 1276,
    "کپ": 1277,
    "▁هرچند": 1278,
    "▁واخواست": 1279,
    "اری": 1280,
    "وقف": 1281,
    "لب": 1282,
    "دید": 1283,
    "▁سکونت": 1284,
    "▁اجبار": 1285,
    "▁مالیات": 1286,
    "داند": 1287,
    "▁میلی": 1288,
    "▁قدر": 1289,
    "▁محاسب": 1290,
    "▁آخر": 1291,
    "محاکم": 1292,
    "▁تولید": 1293,
    "رخ": 1294,
    "▁آتی": 1295,
    "▁مقرو": 1296,
    "▁احتمال": 1297,
    "▁برداشت": 1298,
    "▁ضم": 1299,
    "▁جای": 1300,
    "▁تعرض": 1301,
    "ول": 1302,
    "▁زندان": 1303,
    "▁رسید": 1304,
    "▁قرارگرفت": 1305,
    "▁مقدار": 1306,
    "یع": 1307,
    "▁گرفت": 1308,
    "▁حدو": 1309,
    "▁فتو": 1310,
    "تعلق": 1311,
    "▁توجیه": 1312,
    "تناسب": 1313,
    "▁امعان": 1314,
    "▁مستقر": 1315,
    "▁مجوز": 1316,
    "▁نیافته": 1317,
    "▁ورث": 1318,
    "▁جاری": 1319,
    "▁مسلمان": 1320,
    "▁فک": 1321,
    "ام": 1322,
    "▁نظ": 1323,
    "▁طلب": 1324,
    "▁باز": 1325,
    "ئیس": 1326,
    "▁منتخب": 1327,
    "▁سوابق": 1328,
    "▁متعهد": 1329,
    "▁خط": 1330,
    "▁احد": 1331,
    "▁اولیای": 1332,
    "مه": 1333,
    "فل": 1334,
    "▁گفته": 1335,
    "▁اخلال": 1336,
    "▁محال": 1337,
    "▁فرج": 1338,
    "باره": 1339,
    "براین": 1340,
    "جمع": 1341,
    "نت": 1342,
    "علق": 1343,
    "▁اعم": 1344,
    "▁خلل": 1345,
    "▁نود": 1346,
    "▁محروم": 1347,
    "▁موتور": 1348,
    "بق": 1349,
    "ندگان": 1350,
    "▁اختیارات": 1351,
    "▁جری": 1352,
    "▁بیشتر": 1353,
    "▁اذ": 1354,
    "▁دم": 1355,
    "مین": 1356,
    "▁جدا": 1357,
    "نده": 1358,
    "▁عود": 1359,
    "▁ممنوع": 1360,
    "▁سلاح": 1361,
    "▁عرف": 1362,
    "▁تش": 1363,
    "▁تبرع": 1364,
    "▁تقاضا": 1365,
    "▁اقتصاد": 1366,
    "▁غیرعمد": 1367,
    "▁رجوع": 1368,
    "ذل": 1369,
    "▁حرج": 1370,
    "مر": 1371,
    "▁خیر": 1372,
    "▁مزای": 1373,
    "▁مجتمع": 1374,
    "▁خالی": 1375,
    "▁مرت": 1376,
    "▁عن": 1377,
    "قابل": 1378,
    "▁غیرم": 1379,
    "▁کفا": 1380,
    "فظ": 1381,
    "▁تاکنو": 1382,
    "▁وراث": 1383,
    "▁نشان": 1384,
    "▁گر": 1385,
    "▁تابع": 1386,
    "کرج": 1387,
    "شند": 1388,
    "▁شور": 1389,
    "▁لوازم": 1390,
    "▁آموزش": 1391,
    "▁فرد": 1392,
    "نه": 1393,
    "▁مر": 1394,
    "صلح": 1395,
    "▁معدوم": 1396,
    "▁قائم": 1397,
    "نکر": 1398,
    "▁فروخته": 1399,
    "خواندگان": 1400,
    "▁مقر": 1401,
    "ران": 1402,
    "▁مادی": 1403,
    "حال": 1404,
    "داد": 1405,
    "▁بد": 1406,
    "▁عنصر": 1407,
    "▁مازاد": 1408,
    "▁ماترک": 1409,
    "حتی": 1410,
    "کل": 1411,
    "▁جعلی": 1412,
    "ح": 1413,
    "▁نشر": 1414,
    "وند": 1415,
    "▁تمبر": 1416,
    "▁بدهی": 1417,
    "▁صیغه": 1418,
    "▁...": 1419,
    "▁اجمال": 1420,
    "▁قر": 1421,
    "▁تضامن": 1422,
    "▁ظهر": 1423,
    "▁کسی": 1424,
    "▁متصرف": 1425,
    "ئی": 1426,
    "▁کن": 1427,
    "ضمیم": 1428,
    "ارت": 1429,
    "▁مجددا": 1430,
    "▁معنو": 1431,
    "▁برقرار": 1432,
    "▁دختر": 1433,
    "کشی": 1434,
    "▁تقابل": 1435,
    "▁آرای": 1436,
    "▁أخ": 1437,
    "▁کیف": 1438,
    "تماع": 1439,
    "▁ساع": 1440,
    "▁منقول": 1441,
    "▁ایرانی": 1442,
    "▁پیدا": 1443,
    "▁مثل": 1444,
    "▁نقلی": 1445,
    "▁نبودن": 1446,
    "▁تر": 1447,
    "▁خو": 1448,
    "▁جلس": 1449,
    "▁تب": 1450,
    "▁تص": 1451,
    "▁اختلافات": 1452,
    "▁پانزده": 1453,
    "▁وعده": 1454,
    "▁ضمانت": 1455,
    "▁بعض": 1456,
    "▁باطل": 1457,
    "امل": 1458,
    "صت": 1459,
    "▁مصدوم": 1460,
    "▁کلان": 1461,
    "نتیج": 1462,
    "▁باغ": 1463,
    "▁ایضا": 1464,
    "▁نا": 1465,
    "▁زناشو": 1466,
    "▁تبریز": 1467,
    "▁نصف": 1468,
    "▁مصداق": 1469,
    "هی": 1470,
    "▁مهر": 1471,
    "▁شاهد": 1472,
    "▁پیامک": 1473,
    "▁وراثت": 1474,
    "▁مهم": 1475,
    "▁فق": 1476,
    "اشعار": 1477,
    "▁دفا": 1478,
    "ایی": 1479,
    "▁تجهیز": 1480,
    "▁غیرمنقول": 1481,
    "▁انبار": 1482,
    "▁کنند": 1483,
    "▁ذات": 1484,
    "▁آرا": 1485,
    "تری": 1486,
    "▁درگیر": 1487,
    "▁نحوی": 1488,
    "▁مخالفت": 1489,
    "▁شب": 1490,
    "▁انف": 1491,
    "بران": 1492,
    "غم": 1493,
    "▁مختوم": 1494,
    "▁مش": 1495,
    "▁ممنوعیت": 1496,
    "▁انگشت": 1497,
    "▁استدعا": 1498,
    "▁فصل": 1499,
    "داشت": 1500,
    "▁امضا": 1501,
    "▁پول": 1502,
    "▁جرائم": 1503,
    "موجه": 1504,
    "کنون": 1505,
    "▁غ": 1506,
    "▁کارهای": 1507,
    "▁تاجر": 1508,
    "▁حاکمیت": 1509,
    "▁محضر": 1510,
    "▁قول": 1511,
    "▁معاملات": 1512,
    "ملک": 1513,
    "▁گرم": 1514,
    "ارزه": 1515,
    "عث": 1516,
    "▁ی": 1517,
    "▁امضای": 1518,
    "تورم": 1519,
    "▁خدمات": 1520,
    "▁مسلح": 1521,
    "▁مشهود": 1522,
    "▁ترافع": 1523,
    "▁رفتار": 1524,
    "اید": 1525,
    "▁وقف": 1526,
    "▁جم": 1527,
    "▁درآمد": 1528,
    "ملاک": 1529,
    "▁له": 1530,
    "▁نظم": 1531,
    "دم": 1532,
    "▁اعلامی": 1533,
    "▁تکرار": 1534,
    "وائی": 1535,
    "▁گذشته": 1536,
    "مزد": 1537,
    "▁آر": 1538,
    "ابع": 1539,
    "▁شاخص": 1540,
    "▁التزام": 1541,
    "▁دانشگاه": 1542,
    "مت": 1543,
    "▁تصدی": 1544,
    "▁شروط": 1545,
    "▁ان": 1546,
    "▁کارمند": 1547,
    "وق": 1548,
    "▁بزهکاریش": 1549,
    "ما": 1550,
    "▁شرق": 1551,
    "▁خم": 1552,
    "گیر": 1553,
    "▁تعدی": 1554,
    "▁خودش": 1555,
    "▁الیه": 1556,
    "▁صورتی": 1557,
    "▁مأخوذ": 1558,
    "▁احصا": 1559,
    "▁سرپرست": 1560,
    "▁آزار": 1561,
    "تین": 1562,
    "▁نق": 1563,
    "▁درمان": 1564,
    "قیم": 1565,
    "▁قرارهای": 1566,
    "▁مرضی": 1567,
    "▁پی": 1568,
    "▁قبیل": 1569,
    "▁زنا": 1570,
    "▁بحث": 1571,
    "▁ارتش": 1572,
    "صاص": 1573,
    "▁الب": 1574,
    "قرار": 1575,
    "دوی": 1576,
    "لت": 1577,
    "▁ازاین": 1578,
    "▁مشاعات": 1579,
    "قاضی": 1580,
    "▁ابتدا": 1581,
    "▁تردید": 1582,
    "▁سفید": 1583,
    "▁الطرفین": 1584,
    "ظ": 1585,
    "▁شناخته": 1586,
    "▁دسترس": 1587,
    "▁هست": 1588,
    "▁سق": 1589,
    "▁بخشی": 1590,
    "حه": 1591,
    "▁سجل": 1592,
    "▁متداعی": 1593,
    "▁صور": 1594,
    "سوی": 1595,
    "▁جهاد": 1596,
    "▁ستاد": 1597,
    "ازی": 1598,
    "▁کالای": 1599,
    "▁حدی": 1600,
    "▁بتوان": 1601,
    "دگان": 1602,
    "▁بیمار": 1603,
    "▁عم": 1604,
    "▁ملز": 1605,
    "▁عقید": 1606,
    "▁فاکتور": 1607,
    "▁اوقاف": 1608,
    "▁ضرورت": 1609,
    "▁انسان": 1610,
    "▁محول": 1611,
    "▁دلار": 1612,
    "▁کارگر": 1613,
    "▁الاجرا": 1614,
    "اب": 1615,
    "▁بار": 1616,
    "▁ظاهر": 1617,
    "▁بهار": 1618,
    "▁لی": 1619,
    "▁ادا": 1620,
    "▁آگ": 1621,
    "▁عوارض": 1622,
    "▁سوءنیت": 1623,
    "▁قلم": 1624,
    "▁موتورسی": 1625,
    "▁منعقد": 1626,
    "▁نزاع": 1627,
    "▁متقابل": 1628,
    "▁ضروری": 1629,
    "▁درصورت": 1630,
    "ارث": 1631,
    "▁تمامی": 1632,
    "▁متعارف": 1633,
    "عان": 1634,
    "▁ساق": 1635,
    "آقای": 1636,
    "وز": 1637,
    "▁سود": 1638,
    "امه": 1639,
    "بان": 1640,
    "▁پسندی": 1641,
    "▁موکلین": 1642,
    "▁ز": 1643,
    "▁سا": 1644,
    "▁پلیس": 1645,
    "▁مترتب": 1646,
    "▁تفریط": 1647,
    "▁الزحم": 1648,
    "▁انتشار": 1649,
    "▁ارای": 1650,
    "▁امام": 1651,
    "▁بردن": 1652,
    "▁مطالع": 1653,
    "▁روستای": 1654,
    "صرف": 1655,
    "ملاحظ": 1656,
    "باش": 1657,
    "▁عامل": 1658,
    "▁تفویض": 1659,
    "▁تکالیف": 1660,
    "▁مدیرعامل": 1661,
    "▁مرجوع": 1662,
    "▁مدیون": 1663,
    "نمی": 1664,
    "جز": 1665,
    "مجموع": 1666,
    "▁آگاه": 1667,
    "▁بنابه": 1668,
    "▁منضم": 1669,
    "▁رشت": 1670,
    "▁ته": 1671,
    "▁عرفی": 1672,
    "اعت": 1673,
    "▁سک": 1674,
    "▁اتفاق": 1675,
    "▁شناسا": 1676,
    "▁سررسید": 1677,
    "▁قلع": 1678,
    "▁اسل": 1679,
    "▁مشاهد": 1680,
    "ثابت": 1681,
    "▁تصدیر": 1682,
    "مل": 1683,
    "▁آورده": 1684,
    "▁انعقاد": 1685,
    "جمل": 1686,
    "باط": 1687,
    "▁کتب": 1688,
    "▁الحاق": 1689,
    "اد": 1690,
    "بر": 1691,
    "یش": 1692,
    "▁اقتضا": 1693,
    "وگیر": 1694,
    "▁موظف": 1695,
    "▁تصاویر": 1696,
    "▁متأ": 1697,
    "▁لیتر": 1698,
    "▁غرب": 1699,
    "▁دبیر": 1700,
    "▁مقو": 1701,
    "▁فردی": 1702,
    "▁لا": 1703,
    "تعدد": 1704,
    "▁مغایرت": 1705,
    "▁مبنا": 1706,
    "▁ورا": 1707,
    "هل": 1708,
    "▁جن": 1709,
    "▁موج": 1710,
    "ص": 1711,
    "وم": 1712,
    "▁صنعت": 1713,
    "▁اقلام": 1714,
    "▁تضمین": 1715,
    "▁برخوردار": 1716,
    "▁فریب": 1717,
    "▁دما": 1718,
    "▁مفید": 1719,
    "▁مستقیم": 1720,
    "▁بهره": 1721,
    "▁متفاوت": 1722,
    "▁تجری": 1723,
    "وثی": 1724,
    "وگند": 1725,
    "▁معاین": 1726,
    "▁نیت": 1727,
    "▁قا": 1728,
    "زلزل": 1729,
    "▁تأثیر": 1730,
    "▁والدین": 1731,
    "▁مکرر": 1732,
    "▁استخوان": 1733,
    "▁توأم": 1734,
    "گردیده": 1735,
    "▁شوند": 1736,
    "دشت": 1737,
    "▁حم": 1738,
    "▁قفل": 1739,
    "▁جا": 1740,
    "▁مسئول": 1741,
    "وث": 1742,
    "▁تأ": 1743,
    "▁دوازده": 1744,
    "▁یازده": 1745,
    "▁یقین": 1746,
    "▁کودک": 1747,
    "سال": 1748,
    "یی": 1749,
    "لال": 1750,
    "▁برق": 1751,
    "دارم": 1752,
    "کار": 1753,
    "▁مقید": 1754,
    "▁خواست": 1755,
    "ائم": 1756,
    "دون": 1757,
    "▁دقیق": 1758,
    "قفل": 1759,
    "▁گردن": 1760,
    "▁عکس": 1761,
    "▁چهارصد": 1762,
    "اع": 1763,
    "▁عناوین": 1764,
    "▁اختصاص": 1765,
    "▁پاک": 1766,
    "▁خلاص": 1767,
    "▁مطالبات": 1768,
    "▁اعیان": 1769,
    "دای": 1770,
    "▁اط": 1771,
    "▁کما": 1772,
    "باقی": 1773,
    "▁شهری": 1774,
    "▁حادث": 1775,
    "▁فقدا": 1776,
    "▁رفته": 1777,
    "▁مقتول": 1778,
    "▁اصفهان": 1779,
    "▁تجاوز": 1780,
    "▁کرمان": 1781,
    "▁هویت": 1782,
    "▁سقف": 1783,
    "▁مطلق": 1784,
    "عر": 1785,
    "▁بلام": 1786,
    "امی": 1787,
    "▁شدید": 1788,
    "صاف": 1789,
    "▁روان": 1790,
    "▁لوا": 1791,
    "لیک": 1792,
    "▁تن": 1793,
    "▁فرزندش": 1794,
    "یجان": 1795,
    "▁آسی": 1796,
    "▁نفوذ": 1797,
    "▁متشکل": 1798,
    "▁اعتراف": 1799,
    "یدگی": 1800,
    "▁چشم": 1801,
    "▁پیرا": 1802,
    "▁کارفرما": 1803,
    "▁گناه": 1804,
    "▁افزا": 1805,
    "▁آنجایی": 1806,
    "▁مسا": 1807,
    "▁مهندسی": 1808,
    "وصف": 1809,
    "▁امری": 1810,
    "▁اسا": 1811,
    "▁مبت": 1812,
    "▁هزین": 1813,
    "▁نرسیده": 1814,
    "زی": 1815,
    "ائب": 1816,
    "▁اطلاعات": 1817,
    "وجب": 1818,
    "نوز": 1819,
    "▁مشتری": 1820,
    "رم": 1821,
    "▁ازآنجا": 1822,
    "▁نسب": 1823,
    "▁تعارض": 1824,
    "▁منط": 1825,
    "▁ارشاد": 1826,
    "▁قهری": 1827,
    "▁حصر": 1828,
    "▁نشد": 1829,
    "▁نمای": 1830,
    "سه": 1831,
    "▁مفقود": 1832,
    "شه": 1833,
    "جرح": 1834,
    "▁نامبر": 1835,
    "اره": 1836,
    "مانده": 1837,
    "▁احضار": 1838,
    "▁معتبر": 1839,
    "▁مقصر": 1840,
    "▁حقیق": 1841,
    "▁نوشته": 1842,
    "اصل": 1843,
    "عنه": 1844,
    "▁فن": 1845,
    "▁موقع": 1846,
    "▁جوان": 1847,
    "▁بازرس": 1848,
    "تفاوت": 1849,
    "▁مشارالیهم": 1850,
    "▁اثاث": 1851,
    "▁ماشین": 1852,
    "▁قبض": 1853,
    "روز": 1854,
    "▁بازو": 1855,
    "مع": 1856,
    "▁شریک": 1857,
    "الب": 1858,
    "▁واخواند": 1859,
    "▁تع": 1860,
    "▁نفس": 1861,
    "حسن": 1862,
    "ستگی": 1863,
    "▁تصویب": 1864,
    "چک": 1865,
    "▁نگردید": 1866,
    "جاز": 1867,
    "▁مدافع": 1868,
    "▁آور": 1869,
    "عرفی": 1870,
    "▁وث": 1871,
    "▁دکتر": 1872,
    "▁تفسیر": 1873,
    "▁بازگشت": 1874,
    "▁سیزده": 1875,
    "▁مبالغ": 1876,
    "طف": 1877,
    "▁وصیت": 1878,
    "▁پشت": 1879,
    "▁پدرش": 1880,
    "▁عروس": 1881,
    "▁بنیاد": 1882,
    "▁مرور": 1883,
    "▁قانع": 1884,
    "▁حامل": 1885,
    "ودیع": 1886,
    "▁اعطای": 1887,
    "قل": 1888,
    "▁تعمیر": 1889,
    "▁العا": 1890,
    "رئ": 1891,
    "▁تذکر": 1892,
    "▁دادرس": 1893,
    "▁شرکا": 1894,
    "▁شمال": 1895,
    "فال": 1896,
    "▁دهند": 1897,
    "▁اجناس": 1898,
    "▁تعریف": 1899,
    "▁آذر": 1900,
    "▁فیلم": 1901,
    "▁نگر": 1902,
    "▁مجنی": 1903,
    "▁ملکی": 1904,
    "▁نو": 1905,
    "▁متقن": 1906,
    "▁طبیع": 1907,
    "▁مجر": 1908,
    "▁انح": 1909,
    "حصل": 1910,
    "▁گاز": 1911,
    "یان": 1912,
    "عمل": 1913,
    "کدام": 1914,
    "▁خودروی": 1915,
    "▁فقهی": 1916,
    "ذا": 1917,
    "حقی": 1918,
    "▁عد": 1919,
    "▁دخالت": 1920,
    "▁حفاظت": 1921,
    "▁کر": 1922,
    "▁شهریار": 1923,
    "▁فساد": 1924,
    "▁مشکلات": 1925,
    "▁دینا": 1926,
    "▁آی": 1927,
    "▁مستدل": 1928,
    "ض": 1929,
    "گذار": 1930,
    "▁مابه": 1931,
    "آن": 1932,
    "لح": 1933,
    "▁بدی": 1934,
    "کرد": 1935,
    "▁متک": 1936,
    "▁نسخه": 1937,
    "▁گرد": 1938,
    "▁خیار": 1939,
    "لا": 1940,
    "قوط": 1941,
    "▁شهرس": 1942,
    "▁سرانجام": 1943,
    "▁اعتیاد": 1944,
    "صال": 1945,
    "▁مج": 1946,
    "▁حقیقت": 1947,
    "درس": 1948,
    "▁صلاح": 1949,
    "مون": 1950,
    "کاف": 1951,
    "▁الن": 1952,
    "▁پیگر": 1953,
    "رضی": 1954,
    "خواهد": 1955,
    "شغ": 1956,
    "تقلب": 1957,
    "نموده": 1958,
    "ساعد": 1959,
    "وارد": 1960,
    "▁بعدا": 1961,
    "▁تسهیل": 1962,
    "▁پیمانکار": 1963,
    "▁تصحیح": 1964,
    "زل": 1965,
    "موجب": 1966,
    "▁فرستاده": 1967,
    "▁تحریر": 1968,
    "عد": 1969,
    "چنین": 1970,
    "▁استیفا": 1971,
    "▁ربای": 1972,
    "▁سیاه": 1973,
    "▁المال": 1974,
    "▁گزارشات": 1975,
    "▁جایی": 1976,
    "▁تخلفات": 1977,
    "▁توزی": 1978,
    "نوان": 1979,
    "وعد": 1980,
    "ازه": 1981,
    "▁اسقاط": 1982,
    "▁اکاذیب": 1983,
    "▁جنوب": 1984,
    "▁مفروز": 1985,
    "▁مق": 1986,
    "جه": 1987,
    "▁نصب": 1988,
    "دو": 1989,
    "کرده": 1990,
    "▁معارض": 1991,
    "▁نویس": 1992,
    "ویض": 1993,
    "▁بق": 1994,
    "▁حدا": 1995,
    "أ": 1996,
    "▁مل": 1997,
    "لک": 1998,
    "▁قرا": 1999,
    "▁مهما": 2000,
    "جات": 2001,
    "ضو": 2002,
    "▁وس": 2003,
    "فیل": 2004,
    "جن": 2005,
    "دهد": 2006,
    "▁اخطار": 2007,
    "سواد": 2008,
    "▁اعطا": 2009,
    "▁اخراج": 2010,
    "▁تسبیب": 2011,
    "قدس": 2012,
    "▁دامی": 2013,
    "▁فضای": 2014,
    "▁جواز": 2015,
    "▁علیهم": 2016,
    "▁اولیاء": 2017,
    "▁نداشتن": 2018,
    "▁ارا": 2019,
    "▁انتفاع": 2020,
    "▁خلف": 2021,
    "اله": 2022,
    "دادگاه": 2023,
    "▁ایرادات": 2024,
    "بیل": 2025,
    "▁اعلان": 2026,
    "▁جلو": 2027,
    "طبی": 2028,
    "▁مح": 2029,
    "قانونی": 2030,
    "غ": 2031,
    "▁بیم": 2032,
    "▁پار": 2033,
    "بقی": 2034,
    "▁ضابط": 2035,
    "دگی": 2036,
    "▁کارک": 2037,
    "▁اطراف": 2038,
    "▁معروف": 2039,
    "▁برگشت": 2040,
    "▁تمرد": 2041,
    "▁دارا": 2042,
    "▁بیمارستان": 2043,
    "طرفیت": 2044,
    "▁اد": 2045,
    "کی": 2046,
    "▁معن": 2047,
    "چار": 2048,
    "ناقص": 2049,
    "نکه": 2050,
    "شاه": 2051,
    "▁موکلش": 2052,
    "▁بزرگ": 2053,
    "کند": 2054,
    "▁تیر": 2055,
    "نشأ": 2056,
    "مند": 2057,
    "الوکال": 2058,
    "▁بهای": 2059,
    "▁گ": 2060,
    "وهش": 2061,
    "▁صورتجلس": 2062,
    "ساخ": 2063,
    "▁آماد": 2064,
    "▁عندال": 2065,
    "▁منقصت": 2066,
    "▁دلائل": 2067,
    "▁ظهرنویس": 2068,
    "▁گمرک": 2069,
    "▁خدمت": 2070,
    "▁کیلو": 2071,
    "▁صغیر": 2072,
    "▁مشابه": 2073,
    "▁شمار": 2074,
    "▁فرمان": 2075,
    "▁ناف": 2076,
    "▁مبا": 2077,
    "▁مکان": 2078,
    "▁قراردادها": 2079,
    "وا": 2080,
    "▁هفتصد": 2081,
    "تمسک": 2082,
    "▁برادر": 2083,
    "▁چاه": 2084,
    "صب": 2085,
    "وج": 2086,
    "باب": 2087,
    "▁پلم": 2088,
    "جلسه": 2089,
    "▁حوال": 2090,
    "تلاش": 2091,
    "▁الا": 2092,
    "قی": 2093,
    "تبادل": 2094,
    "▁کامیون": 2095,
    "قت": 2096,
    "▁نپذیرفته": 2097,
    "▁مجرم": 2098,
    "قم": 2099,
    "▁مترا": 2100,
    "▁خوردن": 2101,
    "▁خصو": 2102,
    "درت": 2103,
    "نان": 2104,
    "▁معاف": 2105,
    "▁اعضا": 2106,
    "▁عابر": 2107,
    "ائی": 2108,
    "▁بال": 2109,
    "نظرخواهی": 2110,
    "استان": 2111,
    "▁چگون": 2112,
    "یمه": 2113,
    "خر": 2114,
    "▁حالت": 2115,
    "وح": 2116,
    "▁محض": 2117,
    "▁ملت": 2118,
    "خاطر": 2119,
    "▁سطح": 2120,
    "▁منقوض": 2121,
    "▁هجده": 2122,
    "▁تما": 2123,
    "▁شیراز": 2124,
    "▁پیگیر": 2125,
    "▁مصالح": 2126,
    "بد": 2127,
    "ادی": 2128,
    "▁شرعا": 2129,
    "عنوان": 2130,
    "▁ضابطی": 2131,
    "▁پرورش": 2132,
    "ارستان": 2133,
    "▁گفت": 2134,
    "▁اراد": 2135,
    "▁آیند": 2136,
    "مرار": 2137,
    "بین": 2138,
    "دار": 2139,
    "▁بقا": 2140,
    "▁مبین": 2141,
    "▁موقعی": 2142,
    "▁البرائ": 2143,
    "▁گیرند": 2144,
    "▁بنده": 2145,
    "غیر": 2146,
    "حقاق": 2147,
    "الت": 2148,
    "▁انشا": 2149,
    "یست": 2150,
    "▁مادرش": 2151,
    "▁آزمایش": 2152,
    "▁ابتدای": 2153,
    "▁مجهول": 2154,
    "▁انحصار": 2155,
    "▁مخابرات": 2156,
    "▁لواسان": 2157,
    "▁تملیک": 2158,
    "▁مشورت": 2159,
    "ماده": 2160,
    "▁ثبوت": 2161,
    "اشاره": 2162,
    "▁تقوی": 2163,
    "قدی": 2164,
    "▁اقا": 2165,
    "▁شناس": 2166,
    "واری": 2167,
    "بودن": 2168,
    "▁سل": 2169,
    "▁حف": 2170,
    "جر": 2171,
    "▁مشت": 2172,
    "وجود": 2173,
    "▁سوار": 2174,
    "▁نقش": 2175,
    "▁پیمان": 2176,
    "▁تدلیس": 2177,
    "▁استحضار": 2178,
    "▁لباس": 2179,
    "▁اصرار": 2180,
    "▁امنیت": 2181,
    "ضعف": 2182,
    "▁بدهکار": 2183,
    "▁مشروح": 2184,
    "▁وق": 2185,
    "▁ولایت": 2186,
    "▁مناط": 2187,
    "▁حج": 2188,
    "رس": 2189,
    "خانم": 2190,
    "▁پاس": 2191,
    "▁سپرده": 2192,
    "▁تخ": 2193,
    "▁صنف": 2194,
    "▁زدن": 2195,
    "اقل": 2196,
    "الذکر": 2197,
    "▁نظرخواهی": 2198,
    "▁نوعی": 2199,
    "▁رود": 2200,
    "اکثر": 2201,
    "کید": 2202,
    "من": 2203,
    "▁مفت": 2204,
    "▁بناب": 2205,
    "▁آیا": 2206,
    "▁نکرد": 2207,
    "▁همکار": 2208,
    "سور": 2209,
    "▁ول": 2210,
    "▁محمل": 2211,
    "صر": 2212,
    "▁کالاها": 2213,
    "▁افسر": 2214,
    "▁وجدان": 2215,
    "▁کذب": 2216,
    "▁سازگار": 2217,
    "▁سارق": 2218,
    "▁چاپ": 2219,
    "▁ارزیاب": 2220,
    "انند": 2221,
    "رو": 2222,
    "▁ولو": 2223,
    "تقاد": 2224,
    "کر": 2225,
    "▁ادارات": 2226,
    "▁کمیته": 2227,
    "▁تعدیل": 2228,
    "▁قدام": 2229,
    "عنایت": 2230,
    "▁ضامن": 2231,
    "▁کلم": 2232,
    "▁متولی": 2233,
    "وری": 2234,
    "▁مطال": 2235,
    "▁افتاده": 2236,
    "▁نسخ": 2237,
    "رود": 2238,
    "▁ربط": 2239,
    "▁مردم": 2240,
    "▁فرهنگی": 2241,
    "▁غب": 2242,
    "وان": 2243,
    "فت": 2244,
    "▁پل": 2245,
    "گیرد": 2246,
    "▁گل": 2247,
    "تصویب": 2248,
    "▁الفاظ": 2249,
    "نام": 2250,
    "▁خواهر": 2251,
    "▁انش": 2252,
    "▁دفع": 2253,
    "▁شئون": 2254,
    "▁پورسانت": 2255,
    "▁ندامت": 2256,
    "▁سوخت": 2257,
    "▁اقناع": 2258,
    "▁محیط": 2259,
    "▁کوچک": 2260,
    "▁مشروط": 2261,
    "▁متصور": 2262,
    "جاب": 2263,
    "▁بدان": 2264,
    "▁زانو": 2265,
    "▁مشاغل": 2266,
    "تراضی": 2267,
    "▁اطلاق": 2268,
    "▁رأس": 2269,
    "سهم": 2270,
    "پذیر": 2271,
    "▁فاکتورهای": 2272,
    "تاریخ": 2273,
    "▁مشروع": 2274,
    "▁بیت": 2275,
    "ضاء": 2276,
    "▁خاصی": 2277,
    "▁آمد": 2278,
    "داخل": 2279,
    "▁تغییرات": 2280,
    "سی": 2281,
    "مای": 2282,
    "▁حیات": 2283,
    "▁درب": 2284,
    "ارک": 2285,
    "▁جمعی": 2286,
    "▁درآمده": 2287,
    "▁تعطیل": 2288,
    "▁سنوات": 2289,
    "▁مستدعی": 2290,
    "▁جایگزین": 2291,
    "▁خراش": 2292,
    "▁مثبوت": 2293,
    "▁اصاله": 2294,
    "▁انتهای": 2295,
    "▁بازار": 2296,
    "▁راهنمای": 2297,
    "▁گذاشته": 2298,
    "▁کری": 2299,
    "قسط": 2300,
    "▁پارک": 2301,
    "شکستگ": 2302,
    "▁کنون": 2303,
    "دام": 2304,
    "▁مسک": 2305,
    "▁تف": 2306,
    "اثر": 2307,
    "▁شتر": 2308,
    "احل": 2309,
    "▁یکم": 2310,
    "▁ششصد": 2311,
    "▁استم": 2312,
    "▁متو": 2313,
    "▁عنا": 2314,
    "▁حرکت": 2315,
    "▁مقادیر": 2316,
    "▁شمیران": 2317,
    "▁ذینفع": 2318,
    "▁غرام": 2319,
    "▁بسیار": 2320,
    "▁مشکل": 2321,
    "دا": 2322,
    "▁مخارج": 2323,
    "هلاک": 2324,
    "▁غیاب": 2325,
    "واز": 2326,
    "ادر": 2327,
    "▁شی": 2328,
    "▁حص": 2329,
    "▁تخصص": 2330,
    "▁تناسب": 2331,
    "▁جسم": 2332,
    "▁ستو": 2333,
    "▁مادامی": 2334,
    "▁درخت": 2335,
    "بار": 2336,
    "▁متوا": 2337,
    "▁منافات": 2338,
    "▁اح": 2339,
    "▁مخد": 2340,
    "▁معنای": 2341,
    "▁میسر": 2342,
    "▁لو": 2343,
    "رکن": 2344,
    "مکان": 2345,
    "دف": 2346,
    "یگان": 2347,
    "▁فوری": 2348,
    "▁شبه": 2349,
    "حکم": 2350,
    "▁مکتوب": 2351,
    "▁کارآموز": 2352,
    "▁ناشناس": 2353,
    "▁اتحا": 2354,
    "▁مستثنیات": 2355,
    "▁همدان": 2356,
    "▁نگهبان": 2357,
    "▁اتمام": 2358,
    "▁جنگل": 2359,
    "▁روشن": 2360,
    "▁شواهد": 2361,
    "صراف": 2362,
    "▁تج": 2363,
    "▁صدق": 2364,
    "رصه": 2365,
    "▁آمار": 2366,
    "▁رقب": 2367,
    "▁رفت": 2368,
    "▁کارگاه": 2369,
    "▁اخلاق": 2370,
    "▁برآورد": 2371,
    "▁تکذیب": 2372,
    "صاحب": 2373,
    "▁تصادفات": 2374,
    "احیه": 2375,
    "▁بابل": 2376,
    "▁محدود": 2377,
    "▁مچ": 2378,
    "▁آشنای": 2379,
    "رغ": 2380,
    "گرم": 2381,
    "▁بطرفیت": 2382,
    "وه": 2383,
    "▁موجودی": 2384,
    "مس": 2385,
    "صدور": 2386,
    "صحیحا": 2387,
    "طه": 2388,
    "▁نشو": 2389,
    "▁اکثر": 2390,
    "سیون": 2391,
    "▁ربا": 2392,
    "▁پاره": 2393,
    "شت": 2394,
    "▁امتیاز": 2395,
    "▁عقود": 2396,
    "قطعی": 2397,
    "▁زمره": 2398,
    "▁معوض": 2399,
    "▁وزیر": 2400,
    "▁جنسیت": 2401,
    "کننده": 2402,
    "▁قرینه": 2403,
    "▁منجز": 2404,
    "▁کتاب": 2405,
    "رومی": 2406,
    "▁معا": 2407,
    "امانت": 2408,
    "▁استثنا": 2409,
    "فی": 2410,
    "▁عذر": 2411,
    "▁استن": 2412,
    "▁بناء": 2413,
    "▁زیاد": 2414,
    "▁صدرال": 2415,
    "لیه": 2416,
    "▁مسته": 2417,
    "▁افت": 2418,
    "صری": 2419,
    "خوانده": 2420,
    "▁شاه": 2421,
    "▁معاش": 2422,
    "دادنامه": 2423,
    "مان": 2424,
    "گ": 2425,
    "کلی": 2426,
    "ته": 2427,
    "▁اختراع": 2428,
    "▁مددکار": 2429,
    "▁مقصود": 2430,
    "▁مطبوعات": 2431,
    "▁گردنبند": 2432,
    "▁گذرنامه": 2433,
    "▁طلبکار": 2434,
    "▁خاتم": 2435,
    "▁خرج": 2436,
    "▁عموم": 2437,
    "▁دروغ": 2438,
    "▁پا": 2439,
    "▁توق": 2440,
    "▁بنای": 2441,
    "بی": 2442,
    "▁اخیرال": 2443,
    "▁مخاط": 2444,
    "لات": 2445,
    "▁مرتب": 2446,
    "▁شیر": 2447,
    "▁خرم": 2448,
    "▁فل": 2449,
    "▁محاکمات": 2450,
    "گرفته": 2451,
    "زو": 2452,
    "سسات": 2453,
    "▁زده": 2454,
    "▁آمر": 2455,
    "پرداخت": 2456,
    "▁سیم": 2457,
    "▁نمایی": 2458,
    "▁نهای": 2459,
    "شم": 2460,
    "▁حس": 2461,
    "▁منحصر": 2462,
    "▁چهاردانگ": 2463,
    "▁مشهور": 2464,
    "▁مستمر": 2465,
    "▁مقدور": 2466,
    "▁درخو": 2467,
    "▁کم": 2468,
    "▁اضرار": 2469,
    "▁جوابیه": 2470,
    "▁ملازم": 2471,
    "خواه": 2472,
    "▁فیمابین": 2473,
    "وار": 2474,
    "حساب": 2475,
    "▁کنار": 2476,
    "▁حرف": 2477,
    "▁رنگ": 2478,
    "ود": 2479,
    "▁نس": 2480,
    "▁دور": 2481,
    "▁پسر": 2482,
    "▁مسجل": 2483,
    "نضما": 2484,
    "▁همدیگر": 2485,
    "توصیف": 2486,
    "▁طلاها": 2487,
    "▁برد": 2488,
    "ایع": 2489,
    "رنج": 2490,
    "گرد": 2491,
    "خص": 2492,
    "صاب": 2493,
    "▁توس": 2494,
    "▁دانست": 2495,
    "▁حرا": 2496,
    "▁پیشین": 2497,
    "▁ران": 2498,
    "رداری": 2499,
    "▁نشدن": 2500,
    "▁نواقص": 2501,
    "▁کوتاه": 2502,
    "▁زنجان": 2503,
    "▁سردفتر": 2504,
    "ترافعی": 2505,
    "▁موثر": 2506,
    "▁قمار": 2507,
    "▁عبور": 2508,
    "▁بپرداز": 2509,
    "▁رفاه": 2510,
    "المثل": 2511,
    "▁سبز": 2512,
    "▁موروث": 2513,
    "▁شه": 2514,
    "▁نی": 2515,
    "▁یوم": 2516,
    "▁اطلاعی": 2517,
    "▁عرضه": 2518,
    "اس": 2519,
    "اعلام": 2520,
    "▁همچنان": 2521,
    "▁سپه": 2522,
    "▁محصول": 2523,
    "▁مخ": 2524,
    "حسب": 2525,
    "▁طوری": 2526,
    "▁نش": 2527,
    "▁تدا": 2528,
    "▁جدای": 2529,
    "معی": 2530,
    "▁مفادا": 2531,
    "▁روح": 2532,
    "واره": 2533,
    "▁اتوبوس": 2534,
    "▁شانزده": 2535,
    "▁روغن": 2536,
    "▁منفعت": 2537,
    "▁تظلم": 2538,
    "▁آسایش": 2539,
    "▁تمایل": 2540,
    "▁مضمون": 2541,
    "▁آنجائی": 2542,
    "▁مراسم": 2543,
    "▁دندان": 2544,
    "▁تقلب": 2545,
    "لث": 2546,
    "رز": 2547,
    "▁تسری": 2548,
    "▁آمیز": 2549,
    "▁بیرون": 2550,
    "▁حا": 2551,
    "انون": 2552,
    "▁بلو": 2553,
    "▁ظه": 2554,
    "▁بردار": 2555,
    "▁بکار": 2556,
    "▁شکست": 2557,
    "▁چیز": 2558,
    "▁ازآن": 2559,
    "استناد": 2560,
    "اتب": 2561,
    "▁ماب": 2562,
    "▁خورده": 2563,
    "▁جزئی": 2564,
    "نشده": 2565,
    "▁پارس": 2566,
    "▁کلا": 2567,
    "صل": 2568,
    "افع": 2569,
    "صادر": 2570,
    "▁بینه": 2571,
    "ساز": 2572,
    "▁عادل": 2573,
    "▁نص": 2574,
    "▁حضر": 2575,
    "سار": 2576,
    "▁مباشر": 2577,
    "▁جانشین": 2578,
    "▁حرمت": 2579,
    "▁نکت": 2580,
    "▁عراق": 2581,
    "▁اشتهار": 2582,
    "▁هفده": 2583,
    "ربع": 2584,
    "▁کاردان": 2585,
    "▁اشتراک": 2586,
    "▁شمسی": 2587,
    "أن": 2588,
    "▁مفصل": 2589,
    "وع": 2590,
    "اق": 2591,
    "▁دنبال": 2592,
    "▁قاطع": 2593,
    "▁رقم": 2594,
    "▁اص": 2595,
    "▁رهبر": 2596,
    "▁نیابت": 2597,
    "▁مباشرت": 2598,
    "▁دیده": 2599,
    "واهی": 2600,
    "▁اراک": 2601,
    "▁متهمی": 2602,
    "علوم": 2603,
    "علیه": 2604,
    "راین": 2605,
    "▁رها": 2606,
    "کلاهبردار": 2607,
    "▁تفاوت": 2608,
    "▁شرع": 2609,
    "▁البین": 2610,
    "رجعی": 2611,
    "▁خون": 2612,
    "عدم": 2613,
    "▁آقا": 2614,
    "▁خر": 2615,
    "ظاهر": 2616,
    "اهش": 2617,
    "عقد": 2618,
    "شامی": 2619,
    "▁مشه": 2620,
    "▁عا": 2621,
    "▁محجور": 2622,
    "▁گوی": 2623,
    "صورت": 2624,
    "الی": 2625,
    "▁صن": 2626,
    "▁مخل": 2627,
    "▁اصلاحیه": 2628,
    "▁مادام": 2629,
    "▁یاب": 2630,
    "▁قیم": 2631,
    "▁جان": 2632,
    "▁تبعی": 2633,
    "تش": 2634,
    "▁گویا": 2635,
    "ارجاع": 2636,
    "دلیل": 2637,
    "▁جزا": 2638,
    "نمود": 2639,
    "▁مستن": 2640,
    "▁ایمن": 2641,
    "▁شکار": 2642,
    "▁انعکاس": 2643,
    "▁پشیمان": 2644,
    "▁غاصب": 2645,
    "▁متداول": 2646,
    "▁مازند": 2647,
    "▁بلاف": 2648,
    "▁قرض": 2649,
    "▁سو": 2650,
    "▁جسد": 2651,
    "عرفا": 2652,
    "▁برگزار": 2653,
    "ریال": 2654,
    "تأسف": 2655,
    "▁جنگ": 2656,
    "▁کارگران": 2657,
    "عه": 2658,
    "▁بانو": 2659,
    "▁ساخته": 2660,
    "▁ث": 2661,
    "عمال": 2662,
    "▁مادرم": 2663,
    "دیل": 2664,
    "کا": 2665,
    "عظم": 2666,
    "▁ادوا": 2667,
    "▁ضمان": 2668,
    "▁آل": 2669,
    "▁کارخان": 2670,
    "رشوه": 2671,
    "▁قس": 2672,
    "▁شا": 2673,
    "▁گران": 2674,
    "واقع": 2675,
    "زد": 2676,
    "▁درمورد": 2677,
    "▁کارها": 2678,
    "▁کا": 2679,
    "وفق": 2680,
    "اطه": 2681,
    "▁مشترکا": 2682,
    "عیوب": 2683,
    "احوال": 2684,
    "تک": 2685,
    "▁تشوی": 2686,
    "وض": 2687,
    "▁حیثیت": 2688,
    "▁وکیلش": 2689,
    "▁وزن": 2690,
    "▁مسمو": 2691,
    "▁ضما": 2692,
    "اشد": 2693,
    "وظ": 2694,
    "▁مساع": 2695,
    "بند": 2696,
    "تی": 2697,
    "▁تتم": 2698,
    "▁تفخیذ": 2699,
    "▁مسبوق": 2700,
    "▁بازنشست": 2701,
    "▁ایداع": 2702,
    "▁پوشش": 2703,
    "▁مسجد": 2704,
    "▁ضایع": 2705,
    "▁تمدید": 2706,
    "▁مرهون": 2707,
    "▁مستحدثات": 2708,
    "▁لطم": 2709,
    "▁ایقاع": 2710,
    "▁همزمان": 2711,
    "رج": 2712,
    "▁لفظ": 2713,
    "▁نزدیک": 2714,
    "▁وپنج": 2715,
    "استفاده": 2716,
    "▁ابتدائ": 2717,
    "▁کوچ": 2718,
    "▁آهن": 2719,
    "▁نهاد": 2720,
    "شعبه": 2721,
    "▁بالغ": 2722,
    "قض": 2723,
    "▁سعی": 2724,
    "▁خبر": 2725,
    "نف": 2726,
    "▁کارکرد": 2727,
    "▁سواد": 2728,
    "لاک": 2729,
    "نحن": 2730,
    "▁سنگ": 2731,
    "▁موهو": 2732,
    "▁یکجا": 2733,
    "▁ننمود": 2734,
    "▁قیموم": 2735,
    "▁وابست": 2736,
    "▁تلف": 2737,
    "مجلس": 2738,
    "▁نبود": 2739,
    "▁مختصر": 2740,
    "▁کس": 2741,
    "▁تمک": 2742,
    "توان": 2743,
    "▁عاملی": 2744,
    "▁دل": 2745,
    "▁ناش": 2746,
    "▁رساند": 2747,
    "▁نوب": 2748,
    "▁معاد": 2749,
    "یام": 2750,
    "▁چهارده": 2751,
    "یا": 2752,
    "خیص": 2753,
    "▁نظا": 2754,
    "▁زند": 2755,
    "▁لاضر": 2756,
    "▁ارد": 2757,
    "▁فشار": 2758,
    "▁استخدام": 2759,
    "▁فاضل": 2760,
    "▁هماهنگ": 2761,
    "▁مکتوم": 2762,
    "▁تدارک": 2763,
    "▁مصرح": 2764,
    "▁اتاق": 2765,
    "صیف": 2766,
    "▁البر": 2767,
    "▁تلویح": 2768,
    "▁اخف": 2769,
    "▁محدودیت": 2770,
    "▁ورزش": 2771,
    "▁تقریب": 2772,
    "خصی": 2773,
    "ریز": 2774,
    "اقی": 2775,
    "▁مسیر": 2776,
    "جا": 2777,
    "دیش": 2778,
    "▁جام": 2779,
    "▁خور": 2780,
    "وئی": 2781,
    "یاط": 2782,
    "▁گردان": 2783,
    "▁علاق": 2784,
    "▁سپر": 2785,
    "سر": 2786,
    "▁علمی": 2787,
    "▁پسند": 2788,
    "▁مجز": 2789,
    "▁آمری": 2790,
    "▁شرک": 2791,
    "▁مأخ": 2792,
    "ریم": 2793,
    "▁مقن": 2794,
    "دن": 2795,
    "▁دایم": 2796,
    "ولت": 2797,
    "▁نک": 2798,
    "▁بالاخ": 2799,
    "▁قطعات": 2800,
    "▁عوام": 2801,
    "▁فرهنگ": 2802,
    "ایش": 2803,
    "▁معنا": 2804,
    "بعا": 2805,
    "زیست": 2806,
    "اک": 2807,
    "▁شان": 2808,
    "لاق": 2809,
    "▁منش": 2810,
    "کارت": 2811,
    "▁شهرک": 2812,
    "▁زر": 2813,
    "▁توا": 2814,
    "▁پیر": 2815,
    "نهایت": 2816,
    "▁مدل": 2817,
    "▁الت": 2818,
    "▁تس": 2819,
    "▁ابهام": 2820,
    "▁تأسیس": 2821,
    "▁ذ": 2822,
    "▁طلای": 2823,
    "خ": 2824,
    "دیده": 2825,
    "▁افغان": 2826,
    "▁بازرگان": 2827,
    "▁دوشیز": 2828,
    "▁مذهب": 2829,
    "▁الملل": 2830,
    "▁صبح": 2831,
    "قریب": 2832,
    "▁نامعلوم": 2833,
    "▁توضیحا": 2834,
    "▁مسئ": 2835,
    "زیان": 2836,
    "انس": 2837,
    "▁طرق": 2838,
    "▁مساعدت": 2839,
    "▁خودم": 2840,
    "▁عوض": 2841,
    "طری": 2842,
    "▁پیام": 2843,
    "▁باخته": 2844,
    "ولیت": 2845,
    "▁خطر": 2846,
    "▁منحل": 2847,
    "▁نبای": 2848,
    "فرض": 2849,
    "▁مهیا": 2850,
    "▁جسته": 2851,
    "دانگ": 2852,
    "▁غای": 2853,
    "▁موسس": 2854,
    "دان": 2855,
    "▁منطقی": 2856,
    "لزوم": 2857,
    "▁سیست": 2858,
    "▁حلق": 2859,
    "▁سطر": 2860,
    "بور": 2861,
    "جهت": 2862,
    "▁قائ": 2863,
    "▁نداشت": 2864,
    "▁افز": 2865,
    "نفع": 2866,
    "▁ابو": 2867,
    "▁بیکار": 2868,
    "▁طبع": 2869,
    "یزک": 2870,
    "قبال": 2871,
    "▁گشت": 2872,
    "سد": 2873,
    "گرفت": 2874,
    "عالی": 2875,
    "▁موردادعا": 2876,
    "▁شو": 2877,
    "ندگی": 2878,
    "▁نهادها": 2879,
    "سوم": 2880,
    "▁قسم": 2881,
    "▁فرم": 2882,
    "▁هرم": 2883,
    "▁آغاز": 2884,
    "▁انگیزه": 2885,
    "▁پیشنهاد": 2886,
    "▁کارگزار": 2887,
    "▁اعزام": 2888,
    "▁بستانکار": 2889,
    "▁مجروح": 2890,
    "▁تربیت": 2891,
    "▁ملغی": 2892,
    "▁مانور": 2893,
    "▁سهو": 2894,
    "▁غذا": 2895,
    "▁مبح": 2896,
    "▁مقطع": 2897,
    "▁قصور": 2898,
    "نا": 2899,
    "▁عصر": 2900,
    "ستی": 2901,
    "▁سخت": 2902,
    "▁متفق": 2903,
    "▁کمر": 2904,
    "▁عمران": 2905,
    "▁فروشگاه": 2906,
    "▁سببیت": 2907,
    "▁متیقن": 2908,
    "عرض": 2909,
    "حیث": 2910,
    "▁دارو": 2911,
    "▁دان": 2912,
    "▁نسق": 2913,
    "▁فا": 2914,
    "حمل": 2915,
    "▁جوش": 2916,
    "اسان": 2917,
    "وب": 2918,
    "▁الع": 2919,
    "▁واحدها": 2920,
    "▁منو": 2921,
    "اج": 2922,
    "▁مشار": 2923,
    "▁گو": 2924,
    "▁مزایا": 2925,
    "▁کلید": 2926,
    "ایل": 2927,
    "▁سمن": 2928,
    "گران": 2929,
    "یس": 2930,
    "▁اولاد": 2931,
    "باع": 2932,
    "ائید": 2933,
    "طور": 2934,
    "▁خزا": 2935,
    "قانون": 2936,
    "ظهار": 2937,
    "▁بالس": 2938,
    "▁محو": 2939,
    "▁مضی": 2940,
    "الف": 2941,
    "▁شن": 2942,
    "کفال": 2943,
    "اهو": 2944,
    "▁انگ": 2945,
    "▁مراجعت": 2946,
    "▁حری": 2947,
    "توسل": 2948,
    "زوی": 2949,
    "▁آرایش": 2950,
    "▁صدا": 2951,
    "▁جنس": 2952,
    "▁بلاع": 2953,
    "ایم": 2954,
    "▁الکترونیک": 2955,
    "▁فاحش": 2956,
    "▁شراکت": 2957,
    "▁ترجیح": 2958,
    "▁زیرزمین": 2959,
    "▁اکراه": 2960,
    "▁اعتماد": 2961,
    "▁بناءعلی": 2962,
    "▁بازجو": 2963,
    "▁ارفاق": 2964,
    "▁سلامت": 2965,
    "▁منتشر": 2966,
    "قای": 2967,
    "▁یارانه": 2968,
    "خفیف": 2969,
    "▁بستگان": 2970,
    "▁قاتل": 2971,
    "▁تعبیر": 2972,
    "▁مجنون": 2973,
    "▁مکالم": 2974,
    "▁حصار": 2975,
    "▁دامدار": 2976,
    "خت": 2977,
    "▁فرمانده": 2978,
    "▁فار": 2979,
    "▁کش": 2980,
    "یعه": 2981,
    "ویس": 2982,
    "▁میان": 2983,
    "▁لغ": 2984,
    "▁اسم": 2985,
    "▁راه": 2986,
    "آ": 2987,
    "طلاق": 2988,
    "ضرر": 2989,
    "▁نتوانسته": 2990,
    "▁متعاق": 2991,
    "▁تقدم": 2992,
    "استطاع": 2993,
    "بیان": 2994,
    "جار": 2995,
    "▁پرد": 2996,
    "▁ماند": 2997,
    "نسج": 2998,
    "▁جب": 2999,
    "▁نتوان": 3000,
    "▁مالکان": 3001,
    "▁ط": 3002,
    "▁سپرد": 3003,
    "ئت": 3004,
    "جور": 3005,
    "بایست": 3006,
    "▁توانسته": 3007,
    "دولت": 3008,
    "▁حدودا": 3009,
    "▁مفقودی": 3010,
    "ابلاغ": 3011,
    "▁قلب": 3012,
    "▁تولی": 3013,
    "ساری": 3014,
    "▁پدرم": 3015,
    "▁مخصوص": 3016,
    "▁شیو": 3017,
    "هر": 3018,
    "▁برخورد": 3019,
    "▁توصیف": 3020,
    "ائت": 3021,
    "▁البی": 3022,
    "▁وکالتنامه": 3023,
    "▁تکذیبی": 3024,
    "▁فرو": 3025,
    "▁حر": 3026,
    "وران": 3027,
    "تصور": 3028,
    "▁استثنای": 3029,
    "▁افتاد": 3030,
    "▁بالای": 3031,
    "▁چوب": 3032,
    "دیون": 3033,
    "رسمی": 3034,
    "▁انداز": 3035,
    "صور": 3036,
    "سلسل": 3037,
    "▁خطا": 3038,
    "ثب": 3039,
    "▁صاد": 3040,
    "شاغل": 3041,
    "اختلاف": 3042,
    "خیری": 3043,
    "نج": 3044,
    "▁مخفف": 3045,
    "▁نوجوان": 3046,
    "▁مذاکر": 3047,
    "▁مراکز": 3048,
    "▁استخراج": 3049,
    "▁ابتیاع": 3050,
    "▁ورزیده": 3051,
    "▁حرکات": 3052,
    "▁کاشف": 3053,
    "▁گیلان": 3054,
    "▁ورقه": 3055,
    "▁خردش": 3056,
    "زم": 3057,
    "▁مقاوم": 3058,
    "▁متعامل": 3059,
    "▁ثانوی": 3060,
    "▁زنان": 3061,
    "▁مخفی": 3062,
    "▁متصدی": 3063,
    "▁عصب": 3064,
    "▁تأسیسات": 3065,
    "▁قاپی": 3066,
    "▁قف": 3067,
    "اصول": 3068,
    "▁حاج": 3069,
    "▁خریده": 3070,
    "دین": 3071,
    "▁تلوی": 3072,
    "▁جایز": 3073,
    "ماه": 3074,
    "سل": 3075,
    "مدنی": 3076,
    "▁بیشتری": 3077,
    "چ": 3078,
    "▁مراود": 3079,
    "ادرش": 3080,
    "کوه": 3081,
    "ابین": 3082,
    "▁سهل": 3083,
    "▁حی": 3084,
    "▁مبار": 3085,
    "▁تق": 3086,
    "▁دانشجوی": 3087,
    "▁ملح": 3088,
    "ظرف": 3089,
    "تساوی": 3090,
    "▁اخیرا": 3091,
    "▁مجاور": 3092,
    "شنگ": 3093,
    "▁عقل": 3094,
    "▁دام": 3095,
    "▁بستر": 3096,
    "▁مقی": 3097,
    "▁اعا": 3098,
    "▁رسانده": 3099,
    "▁روده": 3100,
    "▁اق": 3101,
    "▁وصل": 3102,
    "شرک": 3103,
    "نگه": 3104,
    "▁امید": 3105,
    "▁لیس": 3106,
    "▁تحری": 3107,
    "▁بو": 3108,
    "رخصوص": 3109,
    "▁شهردار": 3110,
    "▁عی": 3111,
    "اشرت": 3112,
    "▁روستا": 3113,
    "ابق": 3114,
    "▁فاکتورها": 3115,
    "▁بالاتر": 3116,
    "آباد": 3117,
    "▁سالیان": 3118,
    "▁دادسر": 3119,
    "جلوب": 3120,
    "▁الحس": 3121,
    "▁محر": 3122,
    "▁برج": 3123,
    "▁رفتن": 3124,
    "▁گیر": 3125,
    "▁ادعایش": 3126,
    "الوس": 3127,
    "▁انشای": 3128,
    "رام": 3129,
    "ردد": 3130,
    "▁جد": 3131,
    "▁عق": 3132,
    "عسر": 3133,
    "حکام": 3134,
    "فه": 3135,
    "▁مز": 3136,
    "▁سرد": 3137,
    "▁مأذون": 3138,
    "▁هکتار": 3139,
    "▁تفصیل": 3140,
    "▁مسدود": 3141,
    "▁مفاصا": 3142,
    "▁نوزده": 3143,
    "▁کبوتر": 3144,
    "▁متفرع": 3145,
    "انقلاب": 3146,
    "▁وانتقال": 3147,
    "▁کتف": 3148,
    "▁محصن": 3149,
    "▁انتفا": 3150,
    "▁مستاجر": 3151,
    "▁بنگاه": 3152,
    "▁شیرین": 3153,
    "رات": 3154,
    "کثیر": 3155,
    "▁گروه": 3156,
    "▁اشک": 3157,
    "شار": 3158,
    "تضامن": 3159,
    "▁متض": 3160,
    "▁رز": 3161,
    "▁اتکا": 3162,
    "▁دوسال": 3163,
    "▁موید": 3164,
    "موع": 3165,
    "▁صا": 3166,
    "▁مبد": 3167,
    "عی": 3168,
    "اوی": 3169,
    "عداد": 3170,
    "▁رسیدهای": 3171,
    "▁مقتضا": 3172,
    "وت": 3173,
    "▁اف": 3174,
    "▁توانست": 3175,
    "عده": 3176,
    "یجار": 3177,
    "▁دشت": 3178,
    "▁فرضی": 3179,
    "▁بوک": 3180,
    "▁مفا": 3181,
    "▁مدرس": 3182,
    "▁لب": 3183,
    "دخول": 3184,
    "▁گشته": 3185,
    "قاعد": 3186,
    "تجدیدنظرخواه": 3187,
    "یزد": 3188,
    ".": 3189,
    "ذکر": 3190,
    "▁زور": 3191,
    "نیز": 3192,
    "ضی": 3193,
    "▁بسا": 3194,
    "▁مطل": 3195,
    "قاب": 3196,
    "وکالت": 3197,
    "▁میدان": 3198,
    "▁صادق": 3199,
    "خور": 3200,
    "▁وف": 3201,
    "نون": 3202,
    "▁گذاشتن": 3203,
    "قبل": 3204,
    "▁سیر": 3205,
    "دقیق": 3206,
    "▁نشری": 3207,
    "▁بنز": 3208,
    "▁عاری": 3209,
    "▁نوسا": 3210,
    "نظار": 3211,
    "تذکر": 3212,
    "حرج": 3213,
    "▁قدیم": 3214,
    "شتم": 3215,
    "کف": 3216,
    "صورتی": 3217,
    "▁ورز": 3218,
    "▁تم": 3219,
    "جان": 3220,
    "تخصص": 3221,
    "▁ابر": 3222,
    "ناسب": 3223,
    "پرداز": 3224,
    "▁گردش": 3225,
    "▁محت": 3226,
    "▁گذر": 3227,
    "رائت": 3228,
    "کوئی": 3229,
    "▁شما": 3230,
    "▁خوا": 3231,
    "یج": 3232,
    "▁رضو": 3233,
    "▁کارگری": 3234,
    "▁فاسد": 3235,
    "▁ننمودن": 3236,
    "▁طر": 3237,
    "▁پوشا": 3238,
    "▁توانا": 3239,
    "صیل": 3240,
    "▁جواب": 3241,
    "▁حوادث": 3242,
    "▁گوسفند": 3243,
    "▁اینترنت": 3244,
    "▁فضول": 3245,
    "▁سرباز": 3246,
    "▁فامیل": 3247,
    "▁علایم": 3248,
    "▁محتمل": 3249,
    "▁واقف": 3250,
    "▁جواهرات": 3251,
    "▁منصوص": 3252,
    "الیه": 3253,
    "کیفرخواست": 3254,
    "▁راهرو": 3255,
    "▁عالم": 3256,
    "قف": 3257,
    "▁ابتلا": 3258,
    "▁پاسا": 3259,
    "▁مالباخته": 3260,
    "▁کمال": 3261,
    "خذ": 3262,
    "عیب": 3263,
    "ومیت": 3264,
    "برد": 3265,
    "بن": 3266,
    "بانک": 3267,
    "رار": 3268,
    "▁غالب": 3269,
    "▁همسایگ": 3270,
    "ستم": 3271,
    "▁استخر": 3272,
    "رف": 3273,
    "▁حت": 3274,
    "▁فقها": 3275,
    "عین": 3276,
    "▁امت": 3277,
    "نجال": 3278,
    "▁بزهکار": 3279,
    "▁ابقا": 3280,
    "طاری": 3281,
    "▁گلو": 3282,
    "▁اثنا": 3283,
    "▁جنسی": 3284,
    "▁خا": 3285,
    "داشته": 3286,
    "▁عدو": 3287,
    "دارند": 3288,
    "▁شفا": 3289,
    "بری": 3290,
    "انداز": 3291,
    "▁الغ": 3292,
    "ناع": 3293,
    "▁بارز": 3294,
    "افت": 3295,
    "اشکال": 3296,
    "لام": 3297,
    "مینی": 3298,
    "رقت": 3299,
    "▁قب": 3300,
    "فصل": 3301,
    "کاربر": 3302,
    "▁استی": 3303,
    "خیر": 3304,
    "▁اظهارداشت": 3305,
    "▁خدا": 3306,
    "ایج": 3307,
    "▁آد": 3308,
    "چوب": 3309,
    "لحا": 3310,
    "تب": 3311,
    "▁زا": 3312,
    "خواهان": 3313,
    "▁خاک": 3314,
    "مستندا": 3315,
    "▁شرحی": 3316,
    "▁درآمدن": 3317,
    "▁مجم": 3318,
    "▁سای": 3319,
    "▁آسان": 3320,
    "شرح": 3321,
    "▁سکن": 3322,
    "تکی": 3323,
    "▁رسم": 3324,
    "▁ورشکست": 3325,
    "▁خان": 3326,
    "مگر": 3327,
    "کس": 3328,
    "چال": 3329,
    "بل": 3330,
    "▁مستندی": 3331,
    "اعل": 3332,
    "رح": 3333,
    "دنظر": 3334,
    "آنجایی": 3335,
    "▁وکل": 3336,
    "سند": 3337,
    "▁تراک": 3338,
    "▁ره": 3339,
    "▁عز": 3340,
    "گو": 3341,
    "قصد": 3342,
    "عام": 3343,
    "▁هواپیما": 3344,
    "▁عشایر": 3345,
    "▁الصاق": 3346,
    "▁اقوام": 3347,
    "▁پدربزرگ": 3348,
    "▁معیشت": 3349,
    "▁بازدارند": 3350,
    "▁سهامدار": 3351,
    "▁افزوده": 3352,
    "▁استف": 3353,
    "▁تحدید": 3354,
    "▁مسایل": 3355,
    "▁افاده": 3356,
    "▁شکای": 3357,
    "▁اسکان": 3358,
    "▁الغا": 3359,
    "پرونده": 3360,
    "▁دخول": 3361,
    "▁قصر": 3362,
    "▁تعالی": 3363,
    "▁توکیل": 3364,
    "▁سف": 3365,
    "▁قصا": 3366,
    "▁معت": 3367,
    "▁کارگ": 3368,
    "▁بن": 3369,
    "▁پسماند": 3370,
    "▁نامزد": 3371,
    "▁دوست": 3372,
    "دول": 3373,
    "▁بطر": 3374,
    "▁هرگ": 3375,
    "▁میل": 3376,
    "ینه": 3377,
    "▁شع": 3378,
    "▁دوستان": 3379,
    "▁مفرو": 3380,
    "اش": 3381,
    "تلاف": 3382,
    "▁تحمیل": 3383,
    "ونی": 3384,
    "▁مط": 3385,
    "▁زد": 3386,
    "واعد": 3387,
    "▁عملی": 3388,
    "کیفر": 3389,
    "▁غیرواقع": 3390,
    "▁حفر": 3391,
    "▁عند": 3392,
    "رون": 3393,
    "▁سندی": 3394,
    "▁دلال": 3395,
    "▁مدار": 3396,
    "▁سائ": 3397,
    "اهان": 3398,
    "▁دانش": 3399,
    "نو": 3400,
    "▁خال": 3401,
    "اجاره": 3402,
    "سروی": 3403,
    "▁سوز": 3404,
    "▁منطق": 3405,
    "هور": 3406,
    "▁باردار": 3407,
    "▁ذیصلاح": 3408,
    "برهن": 3409,
    "رای": 3410,
    "▁کشت": 3411,
    "▁شر": 3412,
    "جدید": 3413,
    "▁مختص": 3414,
    "طرف": 3415,
    "سا": 3416,
    "▁اسپر": 3417,
    "▁ضر": 3418,
    "▁هوای": 3419,
    "▁آشنا": 3420,
    "فروش": 3421,
    "فقه": 3422,
    "آزاد": 3423,
    "▁گن": 3424,
    "وکی": 3425,
    "اجا": 3426,
    "▁ادار": 3427,
    "شرعی": 3428,
    "▁آموز": 3429,
    "متعارف": 3430,
    "حدود": 3431,
    "شتی": 3432,
    "ربط": 3433,
    "وقع": 3434,
    "▁موضوعی": 3435,
    "ائن": 3436,
    "▁اشتباها": 3437,
    "▁اصلا": 3438,
    "▁معی": 3439,
    "یید": 3440,
    "خش": 3441,
    "یون": 3442,
    "▁جنای": 3443,
    "▁تشری": 3444,
    "کاری": 3445,
    "▁شوهردار": 3446,
    "▁خودروها": 3447,
    "فحش": 3448,
    "ازش": 3449,
    "زای": 3450,
    "▁بهاء": 3451,
    "▁ارث": 3452,
    "عذر": 3453,
    "افزای": 3454,
    "▁نم": 3455,
    "▁واض": 3456,
    "▁موک": 3457,
    "▁منبع": 3458,
    "فسخ": 3459,
    "شرکت": 3460,
    "بحث": 3461,
    "یری": 3462,
    "▁موضوعات": 3463,
    "▁منقض": 3464,
    "اسلام": 3465,
    "▁مستثنی": 3466,
    "▁المث": 3467,
    "عاد": 3468,
    "▁سامان": 3469,
    "اصفه": 3470,
    "▁مد": 3471,
    "▁گلدکوئ": 3472,
    "▁استنتاج": 3473,
    "▁ابزار": 3474,
    "▁رکیک": 3475,
    "بخیز": 3476,
    "▁پلاستیک": 3477,
    "▁معذور": 3478,
    "▁عزیزال": 3479,
    "▁گمراه": 3480,
    "▁روحانی": 3481,
    "▁معروض": 3482,
    "▁جواهر": 3483,
    "▁مرسل": 3484,
    "▁مستمسک": 3485,
    "▁آزمایشگاه": 3486,
    "▁واجب": 3487,
    "▁مکاتبات": 3488,
    "▁نوشهر": 3489,
    "صواب": 3490,
    "▁درمانگاه": 3491,
    "رگ": 3492,
    "▁حیوان": 3493,
    "▁اشارت": 3494,
    "▁تایپ": 3495,
    "▁ترکیب": 3496,
    "ارگران": 3497,
    "▁مسقط": 3498,
    "سف": 3499,
    "▁شاخه": 3500,
    "▁الناس": 3501,
    "▁افعال": 3502,
    "▁کشی": 3503,
    "▁جعفر": 3504,
    "▁مصط": 3505,
    "▁اب": 3506,
    "▁سنی": 3507,
    "▁ضررهای": 3508,
    "▁رضای": 3509,
    "▁محصو": 3510,
    "▁منصوب": 3511,
    "▁پوست": 3512,
    "▁افشا": 3513,
    "▁راهن": 3514,
    "▁سانتی": 3515,
    "آور": 3516,
    "▁سریع": 3517,
    "▁تنازع": 3518,
    "▁رسانی": 3519,
    "▁تناقض": 3520,
    "▁فحشا": 3521,
    "▁نیاورد": 3522,
    "وچهار": 3523,
    "▁تک": 3524,
    "▁تهر": 3525,
    "▁پایین": 3526,
    "▁بیگان": 3527,
    "▁منت": 3528,
    "▁بالش": 3529,
    "▁نرسید": 3530,
    "ومی": 3531,
    "دهم": 3532,
    "روحی": 3533,
    "▁مرک": 3534,
    "اینک": 3535,
    "▁کمپ": 3536,
    "▁مارال": 3537,
    "▁دستورات": 3538,
    "▁یدک": 3539,
    "▁وج": 3540,
    "▁شریف": 3541,
    "گواهی": 3542,
    "یرفت": 3543,
    "▁ثمر": 3544,
    "▁چکها": 3545,
    "کنوان": 3546,
    "▁وجو": 3547,
    "گردید": 3548,
    "▁ایقا": 3549,
    "دره": 3550,
    "▁نگاه": 3551,
    "▁احیا": 3552,
    "▁شای": 3553,
    "▁نفت": 3554,
    "متع": 3555,
    "داش": 3556,
    "متن": 3557,
    "▁خیاط": 3558,
    "▁پرداز": 3559,
    "▁جر": 3560,
    "جانی": 3561,
    "لاف": 3562,
    "نسبت": 3563,
    "▁حو": 3564,
    "لف": 3565,
    "▁عط": 3566,
    "وف": 3567,
    "رع": 3568,
    "زاق": 3569,
    "▁مشکو": 3570,
    "شن": 3571,
    "▁نیاوردن": 3572,
    "وشهر": 3573,
    "▁ات": 3574,
    "▁اغ": 3575,
    "▁ارتفا": 3576,
    "بع": 3577,
    "دگاه": 3578,
    "پنجم": 3579,
    "▁کیفی": 3580,
    "▁درست": 3581,
    "▁سنن": 3582,
    "▁قیدشد": 3583,
    "▁¬": 3584,
    "▁ایذ": 3585,
    "پرورش": 3586,
    "تاب": 3587,
    "رشید": 3588,
    "راحت": 3589,
    "▁بده": 3590,
    "▁اخ": 3591,
    "وفروش": 3592,
    "▁استاندارد": 3593,
    "▁آبی": 3594,
    "ولاد": 3595,
    "ادت": 3596,
    "یده": 3597,
    "انگه": 3598,
    "فول": 3599,
    "▁انق": 3600,
    "▁دستم": 3601,
    "بوده": 3602,
    "ئن": 3603,
    "تمان": 3604,
    "یف": 3605,
    "▁نف": 3606,
    "جنون": 3607,
    "ذب": 3608,
    "▁امکانات": 3609,
    "راک": 3610,
    "▁نسبی": 3611,
    "▁بندر": 3612,
    "▁کدخدا": 3613,
    "▁گیجگاه": 3614,
    "▁اکتفا": 3615,
    "▁امحاء": 3616,
    "▁تهدیدآمیز": 3617,
    "▁توفیق": 3618,
    "▁گودال": 3619,
    "▁استقلال": 3620,
    "▁شرافت": 3621,
    "▁آلمان": 3622,
    "▁دشوار": 3623,
    "شائ": 3624,
    "▁اطاق": 3625,
    "▁مسائل": 3626,
    "▁تتمیم": 3627,
    "مطالب": 3628,
    "▁الم": 3629,
    "▁عفو": 3630,
    "▁مکفی": 3631,
    "▁تصالح": 3632,
    "▁مترو": 3633,
    "فاهی": 3634,
    "جرم": 3635,
    "▁شهروند": 3636,
    "روی": 3637,
    "▁مسافرت": 3638,
    "وپن": 3639,
    "▁ظن": 3640,
    "▁نتوانست": 3641,
    "▁تام": 3642,
    "▁مجزا": 3643,
    "ایص": 3644,
    "▁تراز": 3645,
    "▁اقبا": 3646,
    "▁هرماه": 3647,
    "▁نوشتن": 3648,
    "قطع": 3649,
    "▁مقدس": 3650,
    "مک": 3651,
    "جمه": 3652,
    "▁ساعات": 3653,
    "تبع": 3654,
    "▁مذ": 3655,
    "لاش": 3656,
    "▁ساک": 3657,
    "طب": 3658,
    "▁صداق": 3659,
    "▁برسان": 3660,
    "نرم": 3661,
    "تکاب": 3662,
    "لل": 3663,
    "▁سلیمان": 3664,
    "ائف": 3665,
    "ورز": 3666,
    "▁هوا": 3667,
    "قبولی": 3668,
    "▁انج": 3669,
    "ازک": 3670,
    "▁کشید": 3671,
    "▁زائ": 3672,
    "▁امرار": 3673,
    "▁تح": 3674,
    "▁قرارداده": 3675,
    "▁آمل": 3676,
    "▁زو": 3677,
    "نم": 3678,
    "اعتبار": 3679,
    "▁احتمالا": 3680,
    "▁سفر": 3681,
    "گزارش": 3682,
    "▁دیو": 3683,
    "▁نیس": 3684,
    "▁سری": 3685,
    "▁چار": 3686,
    "خوان": 3687,
    "▁گستر": 3688,
    "▁نیر": 3689,
    "▁دادنام": 3690,
    "اح": 3691,
    "رمای": 3692,
    "ئب": 3693,
    "میل": 3694,
    "▁آنه": 3695,
    "اوری": 3696,
    "▁زای": 3697,
    "▁الار": 3698,
    "▁مهندس": 3699,
    "▁خودروهای": 3700,
    "▁خانوا": 3701,
    "▁سیما": 3702,
    "تأدی": 3703,
    "رابر": 3704,
    "▁ندا": 3705,
    "▁استانداری": 3706,
    "▁ذهن": 3707,
    "▁یخ": 3708,
    "تن": 3709,
    "▁لایح": 3710,
    "▁خورد": 3711,
    "یز": 3712,
    "شخیص": 3713,
    "ائ": 3714,
    "▁خواند": 3715,
    "▁گم": 3716,
    "مرات": 3717,
    "▁وک": 3718,
    "یدن": 3719,
    "▁دستی": 3720,
    "فر": 3721,
    "▁نمو": 3722,
    "▁بالم": 3723,
    "▁پروند": 3724,
    "▁ترس": 3725,
    "ورود": 3726,
    "▁کوه": 3727,
    "رفتار": 3728,
    "شماره": 3729,
    "▁دختران": 3730,
    "▁آمدن": 3731,
    "▁منف": 3732,
    "تنکا": 3733,
    "تهران": 3734,
    "قر": 3735,
    "▁مواقع": 3736,
    "▁ماجرا": 3737,
    "▁وسائ": 3738,
    "▁آهنگ": 3739,
    "▁زنجیر": 3740,
    "▁حسابدار": 3741,
    "▁تاب": 3742,
    "اخلاق": 3743,
    "وانع": 3744,
    "وسط": 3745,
    "▁حفار": 3746,
    "مشار": 3747,
    "عباس": 3748,
    "کو": 3749,
    "▁باخت": 3750,
    "انتفاع": 3751,
    "ظهر": 3752,
    "قان": 3753,
    "ارس": 3754,
    "احی": 3755,
    "▁مأموریت": 3756,
    "سلام": 3757,
    "▁قدامی": 3758,
    "▁محرم": 3759,
    "▁طب": 3760,
    "▁مسافر": 3761,
    "طابق": 3762,
    "لاح": 3763,
    "▁عزی": 3764,
    "▁احت": 3765,
    "▁شکوا": 3766,
    "▁سئوال": 3767,
    "▁کامپیوتر": 3768,
    "▁پرسنل": 3769,
    "▁خواستگار": 3770,
    "▁احترام": 3771,
    "▁النگو": 3772,
    "▁مختار": 3773,
    "▁ترمیم": 3774,
    "▁احساس": 3775,
    "ستناد": 3776,
    "▁بلاتکلیف": 3777,
    "▁پاسدار": 3778,
    "▁نوزاد": 3779,
    "▁جابجا": 3780,
    "▁اقلیت": 3781,
    "▁تحلیل": 3782,
    "▁استعفا": 3783,
    "▁متعارض": 3784,
    "▁ارتفاق": 3785,
    "▁تحریک": 3786,
    "▁فرصت": 3787,
    "▁ناتوان": 3788,
    "لیل": 3789,
    "واهان": 3790,
    "▁برایم": 3791,
    "▁فتا": 3792,
    "▁شام": 3793,
    "ظام": 3794,
    "▁بستان": 3795,
    "▁تض": 3796,
    "▁امتیازات": 3797,
    "▁یافت": 3798,
    "وک": 3799,
    "▁قضا": 3800,
    "▁گفتار": 3801,
    "▁نامیده": 3802,
    "تعارف": 3803,
    "مهور": 3804,
    "بادر": 3805,
    "گرداند": 3806,
    "تجدیدنظر": 3807,
    "هرست": 3808,
    "اتی": 3809,
    "▁مشرف": 3810,
    "▁مرغ": 3811,
    "ینت": 3812,
    "ویت": 3813,
    "▁عقیم": 3814,
    "اث": 3815,
    "▁محار": 3816,
    "▁خاور": 3817,
    "مالی": 3818,
    "▁مته": 3819,
    "▁فرمای": 3820,
    "▁سکو": 3821,
    "قام": 3822,
    "متهم": 3823,
    "تگی": 3824,
    "▁صابر": 3825,
    "▁اجر": 3826,
    "▁مبی": 3827,
    "مدت": 3828,
    "▁مرتع": 3829,
    "ولی": 3830,
    "▁محصل": 3831,
    "▁قل": 3832,
    "حمت": 3833,
    "رأی": 3834,
    "▁اشکالات": 3835,
    "▁مجانی": 3836,
    "حاکم": 3837,
    "▁ولا": 3838,
    "▁اللو": 3839,
    "ظرخواهی": 3840,
    "سرای": 3841,
    "▁عمر": 3842,
    "▁پیوسته": 3843,
    "▁لر": 3844,
    "▁غی": 3845,
    "▁تأم": 3846,
    "زش": 3847,
    "زا": 3848,
    "نوس": 3849,
    "▁شوک": 3850,
    "▁مصر": 3851,
    "▁ثل": 3852,
    "▁هدای": 3853,
    "غه": 3854,
    "رده": 3855,
    "▁مصدومی": 3856,
    "وساز": 3857,
    "فاق": 3858,
    "▁مأ": 3859,
    "نقل": 3860,
    "▁مکانی": 3861,
    "▁مطر": 3862,
    "▁اقت": 3863,
    "▁اساسنام": 3864,
    "▁گان": 3865,
    "لوب": 3866,
    "جف": 3867,
    "دعوی": 3868,
    "▁خل": 3869,
    "▁پذیرفتن": 3870,
    "▁شکسته": 3871,
    "تم": 3872,
    "داور": 3873,
    "ترتب": 3874,
    "▁آم": 3875,
    "رفت": 3876,
    "حله": 3877,
    "▁معدن": 3878,
    "اهل": 3879,
    "آمد": 3880,
    "خلال": 3881,
    "▁الوص": 3882,
    "▁سین": 3883,
    "▁مافی": 3884,
    "اط": 3885,
    "بوع": 3886,
    "ساوی": 3887,
    "عا": 3888,
    "دادرسی": 3889,
    "▁اه": 3890,
    "منش": 3891,
    "نگ": 3892,
    "توافق": 3893,
    "نیا": 3894,
    "▁عموی": 3895,
    "شع": 3896,
    "خواست": 3897,
    "▁هی": 3898,
    "▁الزاما": 3899,
    "نز": 3900,
    "ائل": 3901,
    "وهشت": 3902,
    "عات": 3903,
    "راه": 3904,
    "ستن": 3905,
    "کردن": 3906,
    "ثبت": 3907,
    "▁مور": 3908,
    "عهد": 3909,
    "نک": 3910,
    "انتشار": 3911,
    "▁شست": 3912,
    "▁اهم": 3913,
    "سلیمان": 3914,
    "▁درامور": 3915,
    "داق": 3916,
    "لوک": 3917,
    "▁مراد": 3918,
    "برگزار": 3919,
    "▁ارشد": 3920,
    "کنند": 3921,
    "▁فور": 3922,
    "فزون": 3923,
    "ماند": 3924,
    "▁جه": 3925,
    "عت": 3926,
    "▁انداخت": 3927,
    "درال": 3928,
    "▁اهدا": 3929,
    "ورد": 3930,
    "▁مزد": 3931,
    "▁صند": 3932,
    "اغ": 3933,
    "▁منا": 3934,
    "ایراد": 3935,
    "▁تابلو": 3936,
    "واع": 3937,
    "ارگا": 3938,
    "سنگر": 3939,
    "ریک": 3940,
    "▁موت": 3941,
    "مصدق": 3942,
    "گذشته": 3943,
    "▁متصرفی": 3944,
    "▁عوا": 3945,
    "▁مزاحم": 3946,
    "شکار": 3947,
    "▁فش": 3948,
    "▁همک": 3949,
    "تبانی": 3950,
    "▁اختصا": 3951,
    "▁اصطلاح": 3952,
    "▁جرثقیل": 3953,
    "▁ناچیز": 3954,
    "▁نیشابور": 3955,
    "▁سرنشین": 3956,
    "▁مکتسب": 3957,
    "▁مضروب": 3958,
    "▁مبسوط": 3959,
    "▁سرتیپ": 3960,
    "▁یورو": 3961,
    "▁کبیر": 3962,
    "▁خلوت": 3963,
    "▁سفارش": 3964,
    "▁پنهان": 3965,
    "▁کنتور": 3966,
    "▁سخن": 3967,
    "▁نارنج": 3968,
    "▁قرمز": 3969,
    "▁شهرها": 3970,
    "▁معقول": 3971,
    "▁حکیمی": 3972,
    "▁ندامتگاه": 3973,
    "▁مباینت": 3974,
    "▁ناچار": 3975,
    "▁مبتلا": 3976,
    "▁خادم": 3977,
    "▁گاو": 3978,
    "▁کاشان": 3979,
    "▁روبرو": 3980,
    "▁حافظ": 3981,
    "یراند": 3982,
    "▁صدای": 3983,
    "▁نمون": 3984,
    "▁ریخته": 3985,
    "▁رمز": 3986,
    "▁کد": 3987,
    "▁فراغ": 3988,
    "▁فعال": 3989,
    "خصیص": 3990,
    "▁ترسیم": 3991,
    "▁ناقل": 3992,
    "▁مساعد": 3993,
    "▁گذارد": 3994,
    "چش": 3995,
    "تناقض": 3996,
    "▁پاسخگوی": 3997,
    "▁جاعل": 3998,
    "▁منصف": 3999,
    "▁امضاکنند": 4000,
    "▁دادگا": 4001,
    "▁اور": 4002,
    "▁اکبر": 4003,
    "▁عبار": 4004,
    "▁متوفای": 4005,
    "▁کشیده": 4006,
    "▁شوراها": 4007,
    "▁برگرداند": 4008,
    "بال": 4009,
    "سس": 4010,
    "یامده": 4011,
    "▁آلود": 4012,
    "▁مص": 4013,
    "▁بسته": 4014,
    "▁سب": 4015,
    "▁بطور": 4016,
    "▁عباس": 4017,
    "▁جدیدال": 4018,
    "▁واخوا": 4019,
    "هن": 4020,
    "خواهند": 4021,
    "▁قاسم": 4022,
    "▁سلس": 4023,
    "ظر": 4024,
    "▁ندادن": 4025,
    "▁گذاشت": 4026,
    "مانی": 4027,
    "رنامه": 4028,
    "▁تقدی": 4029,
    "▁حائ": 4030,
    "وصول": 4031,
    "شتر": 4032,
    "▁نگ": 4033,
    "کم": 4034,
    "بته": 4035,
    "▁پذیرفت": 4036,
    "یاء": 4037,
    "نازع": 4038,
    "▁مطب": 4039,
    "▁آوردن": 4040,
    "رستان": 4041,
    "▁جها": 4042,
    "بلا": 4043,
    "روعی": 4044,
    "کش": 4045,
    "▁کیس": 4046,
    "افی": 4047,
    "لخص": 4048,
    "▁نمایان": 4049,
    "▁ربو": 4050,
    "▁صف": 4051,
    "▁نشین": 4052,
    "▁زود": 4053,
    "▁ارزی": 4054,
    "▁سرخ": 4055,
    "▁تحم": 4056,
    "شک": 4057,
    "برای": 4058,
    "▁فشا": 4059,
    "عمومی": 4060,
    "▁افزو": 4061,
    "▁ارثی": 4062,
    "عن": 4063,
    "▁کو": 4064,
    "نمایند": 4065,
    "غلب": 4066,
    "▁نودو": 4067,
    "طریق": 4068,
    "نیم": 4069,
    "▁روا": 4070,
    "قبول": 4071,
    "راق": 4072,
    "اجرای": 4073,
    "صریح": 4074,
    "▁خوش": 4075,
    "یافته": 4076,
    "▁خوان": 4077,
    "همین": 4078,
    "وسی": 4079,
    "اور": 4080,
    "▁هن": 4081,
    "▁مجرای": 4082,
    "بردار": 4083,
    "▁سرین": 4084,
    "وگر": 4085,
    "ترداد": 4086,
    "▁نوک": 4087,
    "فارق": 4088,
    "▁انت": 4089,
    "▁فیس": 4090,
    "▁ناح": 4091,
    "▁شنید": 4092,
    "ماس": 4093,
    "▁انس": 4094,
    "زن": 4095,
    "حرز": 4096,
    "ساخت": 4097,
    "عکس": 4098,
    "▁تعزی": 4099,
    "آمده": 4100,
    "▁هک": 4101,
    "▁دانشجو": 4102,
    "مجرمیت": 4103,
    "▁تبصر": 4104,
    "▁بروج": 4105,
    "زمان": 4106,
    "اختیار": 4107,
    "علاو": 4108,
    "▁شناخت": 4109,
    "نفک": 4110,
    "میلیون": 4111,
    "▁برس": 4112,
    "▁دزد": 4113,
    "▁مضا": 4114,
    "امور": 4115,
    "▁پیامکها": 4116,
    "نبوده": 4117,
    "▁شم": 4118,
    "طبع": 4119,
    "▁همسای": 4120,
    "دعای": 4121,
    "پارس": 4122,
    "رسیدگی": 4123,
    "اف": 4124,
    "▁ترج": 4125,
    "▁هدایا": 4126,
    "متنا": 4127,
    "زگان": 4128,
    "▁توأما": 4129,
    "دج": 4130,
    "مورد": 4131,
    "▁مالباخت": 4132,
    "▁تعمی": 4133,
    "▁ناگ": 4134,
    "▁امنا": 4135,
    "خورد": 4136,
    "▁درخ": 4137,
    "میان": 4138,
    "▁نهاده": 4139,
    "▁سم": 4140,
    "▁ناز": 4141,
    "▁پیشو": 4142,
    "▁ازای": 4143,
    "▁صدرالاش": 4144,
    "والا": 4145,
    "▁دهن": 4146,
    "ذکور": 4147,
    "▁گسترد": 4148,
    "▁نظرکارشناس": 4149,
    "آیین": 4150,
    "نند": 4151,
    "قا": 4152,
    "▁فو": 4153,
    "▁معالج": 4154,
    "▁متحمل": 4155,
    "▁شکو": 4156,
    "▁عینی": 4157,
    "▁اغماض": 4158,
    "▁آشپز": 4159,
    "▁اضطرا": 4160,
    "▁لیزینگ": 4161,
    "▁خردسال": 4162,
    "پسندی": 4163,
    "▁فیلمبردار": 4164,
    "▁خویشاوند": 4165,
    "▁مطمح": 4166,
    "▁پرستار": 4167,
    "▁غرض": 4168,
    "▁نگشته": 4169,
    "▁یادآور": 4170,
    "▁مختل": 4171,
    "▁تشابه": 4172,
    "▁مشاجر": 4173,
    "▁شلوار": 4174,
    "▁علیحده": 4175,
    "▁تذکار": 4176,
    "برده": 4177,
    "▁فرآورده": 4178,
    "▁نپرداخته": 4179,
    "▁قیود": 4180,
    "▁مملکت": 4181,
    "▁مهماندار": 4182,
    "▁عاطف": 4183,
    "▁روزه": 4184,
    "▁تعبی": 4185,
    "▁ترمین": 4186,
    "لاستیک": 4187,
    "▁بختیار": 4188,
    "▁هشدار": 4189,
    "قاطع": 4190,
    "▁زنگ": 4191,
    "▁مرغدار": 4192,
    "حکیم": 4193,
    "▁مغز": 4194,
    "▁فشارق": 4195,
    "▁داماد": 4196,
    "▁نقاط": 4197,
    "رحال": 4198,
    "مدی": 4199,
    "وانه": 4200,
    "▁درحال": 4201,
    "▁وارث": 4202,
    "▁خراب": 4203,
    "▁طهر": 4204,
    "▁تاکسی": 4205,
    "ناصف": 4206,
    "ضا": 4207,
    "محکوم": 4208,
    "▁تنفس": 4209,
    "غص": 4210,
    "▁شاسی": 4211,
    "زابل": 4212,
    "▁الوفا": 4213,
    "▁جانباز": 4214,
    "▁مهاجر": 4215,
    "▁اسفل": 4216,
    "▁تضا": 4217,
    "▁برادران": 4218,
    "اعات": 4219,
    "▁روش": 4220,
    "▁گردیدن": 4221,
    "▁وال": 4222,
    "▁چینی": 4223,
    "▁معلول": 4224,
    "رک": 4225,
    "▁مسئولی": 4226,
    "▁مستغ": 4227,
    "▁هرکس": 4228,
    "▁آبروی": 4229,
    "سامح": 4230,
    "ثال": 4231,
    "لبکار": 4232,
    "دسر": 4233,
    "أی": 4234,
    "▁نمانده": 4235,
    "▁مبارک": 4236,
    "قبیل": 4237,
    "اخذ": 4238,
    "پران": 4239,
    "▁شهربان": 4240,
    "▁ملحق": 4241,
    "عریض": 4242,
    "▁ترا": 4243,
    "▁وادار": 4244,
    "شگاه": 4245,
    "▁اقای": 4246,
    "▁منشا": 4247,
    "بارز": 4248,
    "اهت": 4249,
    "وس": 4250,
    "فس": 4251,
    "مال": 4252,
    "▁نبو": 4253,
    "بعه": 4254,
    "رفته": 4255,
    "▁عرب": 4256,
    "▁وحقوق": 4257,
    "یوان": 4258,
    "▁عارض": 4259,
    "▁بلند": 4260,
    "ناف": 4261,
    "صغر": 4262,
    "قضی": 4263,
    "▁کی": 4264,
    "فتری": 4265,
    "▁حسینی": 4266,
    "▁لاک": 4267,
    "ظه": 4268,
    "اتر": 4269,
    "▁آرام": 4270,
    "شدن": 4271,
    "احتیا": 4272,
    "سج": 4273,
    "▁پرواز": 4274,
    "▁زارعی": 4275,
    "جانب": 4276,
    "▁کول": 4277,
    "الشر": 4278,
    "مذکور": 4279,
    "▁پن": 4280,
    "▁مشروعی": 4281,
    "چان": 4282,
    "▁ابرو": 4283,
    "دربزرگ": 4284,
    "ماره": 4285,
    "نگردی": 4286,
    "▁قشلاق": 4287,
    "▁مار": 4288,
    "▁قهر": 4289,
    "▁آما": 4290,
    "▁امار": 4291,
    "▁بپذیر": 4292,
    "قدمت": 4293,
    "نزل": 4294,
    "▁تجدیدن": 4295,
    "بیست": 4296,
    "رش": 4297,
    "▁مرز": 4298,
    "آورده": 4299,
    "شته": 4300,
    "▁نوار": 4301,
    "یلی": 4302,
    "▁گزین": 4303,
    "▁کاش": 4304,
    "لول": 4305,
    "ریق": 4306,
    "▁نکردن": 4307,
    "▁بخ": 4308,
    "ساق": 4309,
    "▁نبا": 4310,
    "▁مستو": 4311,
    "▁دلی": 4312,
    "سابق": 4313,
    "▁عیوب": 4314,
    "▁تنه": 4315,
    "▁سالم": 4316,
    "تحویل": 4317,
    "فاهم": 4318,
    "▁نسل": 4319,
    "▁الادا": 4320,
    "▁خواندگ": 4321,
    "▁الله": 4322,
    "▁ساو": 4323,
    "▁اظهاراتش": 4324,
    "▁موضوعا": 4325,
    "آیند": 4326,
    "گیرند": 4327,
    "زدی": 4328,
    "زایش": 4329,
    "گرفتن": 4330,
    "فرجام": 4331,
    "علی": 4332,
    "اوند": 4333,
    "¬¬": 4334,
    "زاد": 4335,
    "▁دف": 4336,
    "مسار": 4337,
    "عم": 4338,
    "حد": 4339,
    "داربست": 4340,
    "سانی": 4341,
    "مایشگاه": 4342,
    "وال": 4343,
    "▁نب": 4344,
    "ابعا": 4345,
    "▁صدقه": 4346,
    "افه": 4347,
    "پزشک": 4348,
    "کاره": 4349,
    "وانی": 4350,
    "▁زار": 4351,
    "▁مشخصا": 4352,
    "▁ریش": 4353,
    "▁ذو": 4354,
    "رساند": 4355,
    "دل": 4356,
    "▁آسیا": 4357,
    "▁چای": 4358,
    "شخص": 4359,
    "▁نت": 4360,
    "نویس": 4361,
    "موت": 4362,
    "▁قص": 4363,
    "سفند": 4364,
    "سط": 4365,
    "مواد": 4366,
    "▁گاه": 4367,
    "نگر": 4368,
    "▁مبل": 4369,
    "اظهار": 4370,
    "معارض": 4371,
    "صح": 4372,
    "رانی": 4373,
    "▁یافتن": 4374,
    "▁سهمی": 4375,
    "لان": 4376,
    "▁دوبار": 4377,
    "قول": 4378,
    "وتا": 4379,
    "تلقی": 4380,
    "▁ظ": 4381,
    "گری": 4382,
    "▁مان": 4383,
    "▁مامور": 4384,
    "تحصیل": 4385,
    "▁رای": 4386,
    "میت": 4387,
    "▁نباش": 4388,
    "چرخ": 4389,
    "▁صغ": 4390,
    "وده": 4391,
    "▁جدی": 4392,
    "▁بسر": 4393,
    "موده": 4394,
    "▁عمو": 4395,
    "▁غر": 4396,
    "سطور": 4397,
    "▁فوقا": 4398,
    "▁سیا": 4399,
    "▁حسین": 4400,
    "▁کارفرمای": 4401,
    "▁تره": 4402,
    "نوشت": 4403,
    "▁رأ": 4404,
    "زیر": 4405,
    "▁نخ": 4406,
    "▁رگ": 4407,
    "آب": 4408,
    "جامع": 4409,
    "▁کان": 4410,
    "▁کلاهبردا": 4411,
    "متیقن": 4412,
    "▁همانطور": 4413,
    "▁دادگاهها": 4414,
    "نخواهد": 4415,
    "▁ادعاها": 4416,
    "▁آبرو": 4417,
    "مول": 4418,
    "جم": 4419,
    "▁جلد": 4420,
    "▁نگرفت": 4421,
    "گذر": 4422,
    "▁جو": 4423,
    "لوار": 4424,
    "هد": 4425,
    "▁شاهدی": 4426,
    "▁خف": 4427,
    "▁عضوی": 4428,
    "غیب": 4429,
    "حوال": 4430,
    "▁کمیت": 4431,
    "سری": 4432,
    "پاشی": 4433,
    "جبرا": 4434,
    "بطه": 4435,
    "▁حکمی": 4436,
    "▁جنا": 4437,
    "▁محا": 4438,
    "▁دیجیتال": 4439,
    "▁نابسامان": 4440,
    "▁گلپایگان": 4441,
    "▁کالیفر": 4442,
    "▁آفتاب": 4443,
    "▁ثلاث": 4444,
    "▁سروصدا": 4445,
    "▁سیگار": 4446,
    "▁فراموش": 4447,
    "▁ناسازگار": 4448,
    "▁زخم": 4449,
    "▁ساندیس": 4450,
    "▁نرسانده": 4451,
    "▁مدظل": 4452,
    "▁نگارش": 4453,
    "▁مهرورز": 4454,
    "▁ضارب": 4455,
    "▁صافکار": 4456,
    "▁مصنوع": 4457,
    "▁ترساندن": 4458,
    "▁ترقو": 4459,
    "نورگیر": 4460,
    "▁مسلط": 4461,
    "▁مثمر": 4462,
    "▁وهفت": 4463,
    "▁وثوق": 4464,
    "▁اشرفی": 4465,
    "▁ملأ": 4466,
    "▁پودر": 4467,
    "▁توصی": 4468,
    "▁سازند": 4469,
    "ظلم": 4470,
    "▁امهار": 4471,
    "وضع": 4472,
    "▁دق": 4473,
    "الاستطاع": 4474,
    "▁زارعان": 4475,
    "▁استثنائ": 4476,
    "خال": 4477,
    "▁متباین": 4478,
    "پسند": 4479,
    "▁انقطاع": 4480,
    "واط": 4481,
    "▁افزودن": 4482,
    "▁سایبر": 4483,
    "▁تناسل": 4484,
    "▁سنگین": 4485,
    "طاب": 4486,
    "▁گناهکار": 4487,
    "رخص": 4488,
    "▁متفر": 4489,
    "قاد": 4490,
    "گون": 4491,
    "تیپ": 4492,
    "▁مواظب": 4493,
    "▁ابهامات": 4494,
    "▁رخ": 4495,
    "▁راکب": 4496,
    "عموم": 4497,
    "▁طاق": 4498,
    "▁تراش": 4499,
    "▁اعتنا": 4500,
    "فوی": 4501,
    "▁وحشی": 4502,
    "▁بعید": 4503,
    "▁جایگ": 4504,
    "شام": 4505,
    "▁تکاف": 4506,
    "ارگی": 4507,
    "یاب": 4508,
    "رعا": 4509,
    "یار": 4510,
    "▁همانطوری": 4511,
    "▁محرمان": 4512,
    "مپ": 4513,
    "▁جملات": 4514,
    "انع": 4515,
    "▁کابل": 4516,
    "▁مقار": 4517,
    "▁بعداز": 4518,
    "▁پولش": 4519,
    "▁سنج": 4520,
    "▁خاطی": 4521,
    "کشور": 4522,
    "▁ریز": 4523,
    "▁قرین": 4524,
    "▁عنهم": 4525,
    "▁کلاش": 4526,
    "▁بخشیده": 4527,
    "تضی": 4528,
    "▁اندیش": 4529,
    "اهد": 4530,
    "▁کانا": 4531,
    "▁عبارتند": 4532,
    "▁متروک": 4533,
    "▁تعاقب": 4534,
    "عار": 4535,
    "▁زنجیره": 4536,
    "▁هدایای": 4537,
    "دادخواست": 4538,
    "▁دادسراها": 4539,
    "دست": 4540,
    "یوس": 4541,
    "▁اتفاقا": 4542,
    "▁جوا": 4543,
    "▁آهنگر": 4544,
    "▁آز": 4545,
    "▁کنگ": 4546,
    "▁لاح": 4547,
    "▁ظنی": 4548,
    "احداث": 4549,
    "▁بوسی": 4550,
    "بهشت": 4551,
    "▁سان": 4552,
    "▁شایس": 4553,
    "▁وانت": 4554,
    "▁جائ": 4555,
    "فرور": 4556,
    "▁ارج": 4557,
    "قید": 4558,
    "▁محمدی": 4559,
    "امنی": 4560,
    "شی": 4561,
    "▁آت": 4562,
    "▁سانت": 4563,
    "قد": 4564,
    "تول": 4565,
    "رنگ": 4566,
    "پلاک": 4567,
    "تو": 4568,
    "مورخ": 4569,
    "▁سید": 4570,
    "حضور": 4571,
    "جری": 4572,
    "دآباد": 4573,
    "▁ندانست": 4574,
    "▁طف": 4575,
    "دع": 4576,
    "ناب": 4577,
    "▁ناموس": 4578,
    "لوت": 4579,
    "▁تاپ": 4580,
    "▁توجیهات": 4581,
    "هان": 4582,
    "▁پخ": 4583,
    "شکل": 4584,
    "▁القا": 4585,
    "▁اینجا": 4586,
    "▁سازندگ": 4587,
    "▁گون": 4588,
    "اسخ": 4589,
    "جشن": 4590,
    "بلاغ": 4591,
    "▁وحق": 4592,
    "▁قطعا": 4593,
    "▁سرو": 4594,
    "▁بالاتری": 4595,
    "عیت": 4596,
    "طر": 4597,
    "▁تدری": 4598,
    "▁کور": 4599,
    "تصرف": 4600,
    "وغ": 4601,
    "لاء": 4602,
    "یابی": 4603,
    "▁مغ": 4604,
    "فیت": 4605,
    "او": 4606,
    "زیه": 4607,
    "وایی": 4608,
    "▁مزا": 4609,
    "تبصره": 4610,
    "انجام": 4611,
    "خوا": 4612,
    "▁ترب": 4613,
    "▁عملش": 4614,
    "▁دائ": 4615,
    "▁قی": 4616,
    "▁فرمود": 4617,
    "رفه": 4618,
    "ریزش": 4619,
    "▁تعل": 4620,
    "سمی": 4621,
    "انده": 4622,
    "جای": 4623,
    "دوسی": 4624,
    "▁باهم": 4625,
    "الزام": 4626,
    "▁فروشندگ": 4627,
    "▁اعت": 4628,
    "ادار": 4629,
    "▁کنت": 4630,
    "غیره": 4631,
    "▁جرای": 4632,
    "تور": 4633,
    "رگیر": 4634,
    "▁کمی": 4635,
    "▁قد": 4636,
    "احق": 4637,
    "جد": 4638,
    "محترم": 4639,
    "الک": 4640,
    "▁فرجامخواه": 4641,
    "بخش": 4642,
    "▁کاشت": 4643,
    "▁ذهنی": 4644,
    "▁جع": 4645,
    "روئی": 4646,
    "سان": 4647,
    "دس": 4648,
    "سوس": 4649,
    "▁هنگامی": 4650,
    "رشد": 4651,
    "فق": 4652,
    "فو": 4653,
    "▁تقل": 4654,
    "همان": 4655,
    "هزار": 4656,
    "خرال": 4657,
    "▁خورم": 4658,
    "▁مقا": 4659,
    "بدل": 4660,
    "عاب": 4661,
    "وشش": 4662,
    "ئید": 4663,
    "محسوب": 4664,
    "▁بهانه": 4665,
    "علا": 4666,
    "▁آش": 4667,
    "▁ناحق": 4668,
    "سن": 4669,
    "▁امورخانه": 4670,
    "▁داو": 4671,
    "غذ": 4672,
    "گذشت": 4673,
    "▁جوار": 4674,
    "▁خص": 4675,
    "▁معلم": 4676,
    "▁مرجعی": 4677,
    "▁تاز": 4678,
    "تقد": 4679,
    "صحیح": 4680,
    "▁پروا": 4681,
    "عابر": 4682,
    "راض": 4683,
    "▁سیاس": 4684,
    "حب": 4685,
    "▁نداد": 4686,
    "آپارتمان": 4687,
    "▁بگیر": 4688,
    "خو": 4689,
    "▁وار": 4690,
    "ستاد": 4691,
    "▁استر": 4692,
    "▁اقرب": 4693,
    "وثر": 4694,
    "دند": 4695,
    "▁تبعا": 4696,
    "بطل": 4697,
    "وکیل": 4698,
    "▁جرا": 4699,
    "▁تعد": 4700,
    "▁تعمد": 4701,
    "انگ": 4702,
    "مشروب": 4703,
    "دادسرا": 4704,
    "صندو": 4705,
    "خته": 4706,
    "▁درجلس": 4707,
    "حجاب": 4708,
    "ونه": 4709,
    "▁مهره": 4710,
    "قضایی": 4711,
    "ستشوی": 4712,
    "▁نظری": 4713,
    "▁مهمان": 4714,
    "▁تنگ": 4715,
    "▁جزئ": 4716,
    "مدعی": 4717,
    "ایشگاه": 4718,
    "تهم": 4719,
    "▁خرد": 4720,
    "زک": 4721,
    "اطف": 4722,
    "▁رق": 4723,
    "تجدید": 4724,
    "مانع": 4725,
    "گا": 4726,
    "▁استع": 4727,
    "ذیر": 4728,
    "کیفیت": 4729,
    "داشتن": 4730,
    "▁کیل": 4731,
    "جهات": 4732,
    "▁تأخ": 4733,
    "رمند": 4734,
    "بانی": 4735,
    "▁قط": 4736,
    "▁کت": 4737,
    "▁مشکی": 4738,
    "اصر": 4739,
    "یین": 4740,
    "رضایت": 4741,
    "▁گفتن": 4742,
    "ارن": 4743,
    "فا": 4744,
    "▁وحش": 4745,
    "▁مستحدث": 4746,
    "▁خرما": 4747,
    "حر": 4748,
    "مادی": 4749,
    "نگهداری": 4750,
    "پر": 4751,
    "▁مشک": 4752,
    "کشف": 4753,
    "غری": 4754,
    "گام": 4755,
    "▁محمد": 4756,
    "ربه": 4757,
    "مشاور": 4758,
    "انو": 4759,
    "اجع": 4760,
    "وقت": 4761,
    "عل": 4762,
    "ریر": 4763,
    "▁راهنما": 4764,
    "نای": 4765,
    "ادام": 4766,
    "متری": 4767,
    "▁توام": 4768,
    "▁جرمش": 4769,
    "ماد": 4770,
    "انگشت": 4771,
    "الاجرا": 4772,
    "▁الآ": 4773,
    "▁آستا": 4774,
    "گن": 4775,
    "رهن": 4776,
    "▁باط": 4777,
    "مایند": 4778,
    "شواهد": 4779,
    "▁گز": 4780,
    "تقدیم": 4781,
    "رموج": 4782,
    "▁ست": 4783,
    "▁دربند": 4784,
    "کارگاه": 4785,
    "▁الذ": 4786,
    "مطالع": 4787,
    "مستقیم": 4788,
    "محکومیت": 4789,
    "▁سببی": 4790,
    "▁زی": 4791,
    "خود": 4792,
    "اکستان": 4793,
    "دبیر": 4794,
    "▁فرستاد": 4795,
    "▁نپذیرفت": 4796,
    "▁گنا": 4797,
    "▁أ": 4798,
    "▁محکو": 4799,
    "▁غل": 4800,
    "عدی": 4801,
    "عوض": 4802,
    "▁تسلی": 4803,
    "رزه": 4804,
    "▁مجرمان": 4805,
    "▁غیرمو": 4806,
    "▁برگه": 4807,
    "▁منفرد": 4808,
    "▁مهرالم": 4809,
    "▁فروخت": 4810,
    "رادی": 4811,
    "▁منسو": 4812,
    "ذع": 4813,
    "▁متم": 4814,
    "طلاع": 4815,
    "جلی": 4816,
    "▁مکاتب": 4817,
    "▁ارتوپد": 4818,
    "▁جغرافیای": 4819,
    "▁غیرمحصن": 4820,
    "▁مستخدم": 4821,
    "▁مطمئن": 4822,
    "▁گوناگون": 4823,
    "▁زحمات": 4824,
    "▁تمثیل": 4825,
    "▁کانتینر": 4826,
    "▁تنجیز": 4827,
    "▁امتحان": 4828,
    "▁لاریجان": 4829,
    "▁ماکرو": 4830,
    "▁دندانپزشک": 4831,
    "▁ترفند": 4832,
    "▁سوءظن": 4833,
    "▁حروف": 4834,
    "▁قضاوت": 4835,
    "▁پدرشوهر": 4836,
    "▁نادرست": 4837,
    "▁ناروا": 4838,
    "▁داروساز": 4839,
    "▁بسیج": 4840,
    "▁اغوا": 4841,
    "▁تغلیظ": 4842,
    "قرارداد": 4843,
    "▁تمهید": 4844,
    "▁رضا": 4845,
    "▁مدخل": 4846,
    "▁زیانبار": 4847,
    "بای": 4848,
    "▁حراج": 4849,
    "▁هوشی": 4850,
    "نظامی": 4851,
    "خوذ": 4852,
    "موضوع": 4853,
    "▁هیدرو": 4854,
    "▁مهمتر": 4855,
    "▁پدید": 4856,
    "▁مریض": 4857,
    "▁نگفته": 4858,
    "▁وفا": 4859,
    "▁پناه": 4860,
    "▁منفردا": 4861,
    "▁پاشید": 4862,
    "▁پست": 4863,
    "▁استقراع": 4864,
    "▁متوسل": 4865,
    "▁سراسر": 4866,
    "سبب": 4867,
    "صدهزار": 4868,
    "▁پشتی": 4869,
    "▁زیبا": 4870,
    "شریک": 4871,
    "▁آرایشگر": 4872,
    "▁متشاکی": 4873,
    "▁بهبودی": 4874,
    "▁اتوب": 4875,
    "▁رقبات": 4876,
    "▁جمال": 4877,
    "حیط": 4878,
    "▁تفوی": 4879,
    "▁لعا": 4880,
    "تحم": 4881,
    "▁درگذشت": 4882,
    "خی": 4883,
    "▁دومیلی": 4884,
    "▁رفتارهای": 4885,
    "▁امضاهای": 4886,
    "▁تمبرهای": 4887,
    "اض": 4888,
    "▁ناپذیر": 4889,
    "▁الح": 4890,
    "▁خشک": 4891,
    "▁برادرم": 4892,
    "دهند": 4893,
    "شو": 4894,
    "▁گذران": 4895,
    "▁نپذیر": 4896,
    "▁مثا": 4897,
    "▁چسب": 4898,
    "▁بسیط": 4899,
    "ذمه": 4900,
    "▁نشسته": 4901,
    "▁اهدای": 4902,
    "▁لمس": 4903,
    "▁عقلا": 4904,
    "اکی": 4905,
    "▁مردان": 4906,
    "▁تولیدکنند": 4907,
    "یبی": 4908,
    "هیه": 4909,
    "▁شناختن": 4910,
    "خاذ": 4911,
    "▁گنج": 4912,
    "▁کاربرد": 4913,
    "حمدی": 4914,
    "اسط": 4915,
    "▁تعلیم": 4916,
    "ذون": 4917,
    "▁سراس": 4918,
    "▁انداخته": 4919,
    "بستر": 4920,
    "دیات": 4921,
    "▁صو": 4922,
    "▁ملزوم": 4923,
    "درخواست": 4924,
    "▁فلز": 4925,
    "اظهارات": 4926,
    "وین": 4927,
    "لایحه": 4928,
    "ونگ": 4929,
    "▁تعارضات": 4930,
    "کافی": 4931,
    "▁پرند": 4932,
    "سیب": 4933,
    "▁نبرده": 4934,
    "ازآن": 4935,
    "▁نقاش": 4936,
    "تاج": 4937,
    "گلا": 4938,
    "رائ": 4939,
    "▁متبادل": 4940,
    "واس": 4941,
    "أد": 4942,
    "▁دز": 4943,
    "▁سول": 4944,
    "نها": 4945,
    "▁باک": 4946,
    "▁تکل": 4947,
    "شناس": 4948,
    "فوق": 4949,
    "زوم": 4950,
    "قو": 4951,
    "▁نفرستاد": 4952,
    "▁همگان": 4953,
    "▁کشاند": 4954,
    "یرکرد": 4955,
    "مسر": 4956,
    "لو": 4957,
    "▁فرس": 4958,
    "▁درزمان": 4959,
    "▁حضورش": 4960,
    "▁رادیو": 4961,
    "وائ": 4962,
    "▁مآ": 4963,
    "▁متحد": 4964,
    "▁اورا": 4965,
    "▁نط": 4966,
    "▁دیدگا": 4967,
    "صلاحیت": 4968,
    "زیک": 4969,
    "▁سرا": 4970,
    "▁تشکی": 4971,
    "سخ": 4972,
    "مرجع": 4973,
    "ریه": 4974,
    "▁تحقیر": 4975,
    "▁دریک": 4976,
    "یب": 4977,
    "نحو": 4978,
    "گفته": 4979,
    "انکار": 4980,
    "▁صدد": 4981,
    "▁وکا": 4982,
    "▁الو": 4983,
    "وگانگ": 4984,
    "وسف": 4985,
    "▁برا": 4986,
    "▁نشست": 4987,
    "▁حیا": 4988,
    "زاید": 4989,
    "▁بای": 4990,
    "▁نگرد": 4991,
    "▁نح": 4992,
    "▁چال": 4993,
    "▁محکم": 4994,
    "المن": 4995,
    "سوب": 4996,
    "لای": 4997,
    "ستگاه": 4998,
    "▁جواد": 4999,
    "لاس": 5000,
    "▁ایست": 5001,
    "▁هشتادو": 5002,
    "فات": 5003,
    "▁غیرازاین": 5004,
    "▁اظهارنمود": 5005,
    "سم": 5006,
    "▁رحم": 5007,
    "▁پرتو": 5008,
    "▁کرمی": 5009,
    "نجان": 5010,
    "رجم": 5011,
    "مز": 5012,
    "الیا": 5013,
    "رهنگ": 5014,
    "ودت": 5015,
    "▁طو": 5016,
    "انح": 5017,
    "▁نخواه": 5018,
    "مکف": 5019,
    "دور": 5020,
    "داشتی": 5021,
    "روند": 5022,
    "علام": 5023,
    "بستان": 5024,
    "▁شبا": 5025,
    "▁مقتض": 5026,
    "▁استیلا": 5027,
    "▁عج": 5028,
    "وگستر": 5029,
    "▁موص": 5030,
    "▁قبو": 5031,
    "▁مقبول": 5032,
    "▁ذه": 5033,
    "جزای": 5034,
    "اتفاق": 5035,
    "▁واخو": 5036,
    "صول": 5037,
    "سیط": 5038,
    "تعیین": 5039,
    "تقاضای": 5040,
    "▁انع": 5041,
    "یدگ": 5042,
    "▁معاو": 5043,
    "تمام": 5044,
    "اسی": 5045,
    "رپشت": 5046,
    "پرو": 5047,
    "مضی": 5048,
    "شوند": 5049,
    "ضح": 5050,
    "نشد": 5051,
    "▁اعدا": 5052,
    "اول": 5053,
    "ضائ": 5054,
    "▁ورش": 5055,
    "▁غیرت": 5056,
    "▁تخفیفا": 5057,
    "گوی": 5058,
    "رها": 5059,
    "لم": 5060,
    "کور": 5061,
    "سب": 5062,
    "احراز": 5063,
    "▁مبال": 5064,
    "مره": 5065,
    "یح": 5066,
    "اثبات": 5067,
    "فاقد": 5068,
    "بنده": 5069,
    "جل": 5070,
    "تمکین": 5071,
    "ایگان": 5072,
    "سید": 5073,
    "▁تل": 5074,
    "لیت": 5075,
    "هرماه": 5076,
    "▁بها": 5077,
    "▁قری": 5078,
    "بالات": 5079,
    "مشترک": 5080,
    "مبلغ": 5081,
    "قناع": 5082,
    "ایر": 5083,
    "▁کبر": 5084,
    "الا": 5085,
    "حده": 5086,
    "وانند": 5087,
    "سرقت": 5088,
    "▁کارش": 5089,
    "▁وابستگ": 5090,
    "بعد": 5091,
    "حرم": 5092,
    "اکستر": 5093,
    "ظامی": 5094,
    "نفی": 5095,
    "▁درآورد": 5096,
    "تأیید": 5097,
    "معاش": 5098,
    "شکایت": 5099,
    "میزان": 5100,
    "▁انگو": 5101,
    "یخ": 5102,
    "▁اک": 5103,
    "دفاع": 5104,
    "سقف": 5105,
    "رایی": 5106,
    "▁کشتی": 5107,
    "حاضر": 5108,
    "اخت": 5109,
    "▁معم": 5110,
    "ینک": 5111,
    "▁درح": 5112,
    "نتر": 5113,
    "ابر": 5114,
    "▁طلبی": 5115,
    "مرحله": 5116,
    "رب": 5117,
    "تجدیدنظرخوانده": 5118,
    "مسلم": 5119,
    "حقوق": 5120,
    "جعل": 5121,
    "▁برتری": 5122,
    "ماید": 5123,
    "▁پسرش": 5124,
    "▁بطن": 5125,
    "مراجع": 5126,
    "▁ریا": 5127,
    "ارکا": 5128,
    "▁شاک": 5129,
    "▁قانو": 5130,
    "موم": 5131,
    "فک": 5132,
    "کات": 5133,
    "▁متوسط": 5134,
    "مقام": 5135,
    "▁اعل": 5136,
    "سوخ": 5137,
    "منفع": 5138,
    "تعرض": 5139,
    "أخ": 5140,
    "نع": 5141,
    "ئین": 5142,
    "▁ور": 5143,
    "مجعول": 5144,
    "نحوی": 5145,
    "جنب": 5146,
    "▁علو": 5147,
    "نمودن": 5148,
    "باز": 5149,
    "زندگی": 5150,
    "▁ایم": 5151,
    "▁تز": 5152,
    "حرف": 5153,
    "توک": 5154,
    "داده": 5155,
    "قاچاق": 5156,
    "مرکز": 5157,
    "حین": 5158,
    "جنو": 5159,
    "عدد": 5160,
    "حقوقی": 5161,
    "ویی": 5162,
    "تخلی": 5163,
    "▁نها": 5164,
    "نفر": 5165,
    "ارض": 5166,
    "الیهم": 5167,
    "▁امروز": 5168,
    "صه": 5169,
    "احمد": 5170,
    "منظور": 5171,
    "معمول": 5172,
    "فقر": 5173,
    "اخ": 5174,
    "انش": 5175,
    "دعاوی": 5176,
    "ضل": 5177,
    "▁متعا": 5178,
    "مندان": 5179,
    "رفتن": 5180,
    "▁پیگ": 5181,
    "وشگاه": 5182,
    "▁هلاک": 5183,
    "تج": 5184,
    "مایم": 5185,
    "لز": 5186,
    "▁مرحل": 5187,
    "▁جس": 5188,
    "کارشناسی": 5189,
    "ارگ": 5190,
    "سکون": 5191,
    "بات": 5192,
    "▁طبیعت": 5193,
    "▁بام": 5194,
    "▁گما": 5195,
    "رائی": 5196,
    "▁پیچ": 5197,
    "اریه": 5198,
    "▁مفهوما": 5199,
    "سقط": 5200,
    "هش": 5201,
    "الدین": 5202,
    "لغ": 5203,
    "هیز": 5204,
    "▁تسل": 5205,
    "▁معاود": 5206,
    "▁برگردان": 5207,
    "صادف": 5208,
    "طول": 5209,
    "▁دهان": 5210,
    "مقدم": 5211,
    "▁آیت": 5212,
    "سرپرست": 5213,
    "امر": 5214,
    "▁مجرا": 5215,
    "الزحم": 5216,
    "مات": 5217,
    "▁ازآقای": 5218,
    "▁آلو": 5219,
    "افراز": 5220,
    "▁درحد": 5221,
    "وپنج": 5222,
    "صوص": 5223,
    "سیار": 5224,
    "صدم": 5225,
    "تحریر": 5226,
    "▁هویتی": 5227,
    "▁شف": 5228,
    "▁پاسخگو": 5229,
    "گناه": 5230,
    "اعتراض": 5231,
    "▁مارالذ": 5232,
    "آشنای": 5233,
    "فرزند": 5234,
    "فهمید": 5235,
    "نزاع": 5236,
    "امتیاز": 5237,
    "مو": 5238,
    "شق": 5239,
    "▁کلاهبر": 5240,
    "معنو": 5241,
    "غرب": 5242,
    "خیار": 5243,
    "چسب": 5244,
    "داره": 5245,
    "▁توقع": 5246,
    "عضو": 5247,
    "▁مضر": 5248,
    "▁نگذاشت": 5249,
    "▁ربود": 5250,
    "▁بوکا": 5251,
    "▁هفتادو": 5252,
    "▁رب": 5253,
    "▁تاک": 5254,
    "▁ضع": 5255,
    "پیچ": 5256,
    "▁استشهاد": 5257,
    "▁اتی": 5258,
    "دنبال": 5259,
    "ناپذیر": 5260,
    "شایست": 5261,
    "ارم": 5262,
    "نفس": 5263,
    "رفی": 5264,
    "▁تعلی": 5265,
    "اهی": 5266,
    "▁جاس": 5267,
    "اسفل": 5268,
    "▁شرف": 5269,
    "▁عالما": 5270,
    "▁مث": 5271,
    "وچ": 5272,
    "حدی": 5273,
    "ینا": 5274,
    "وام": 5275,
    "▁صدو": 5276,
    "صراح": 5277,
    "راده": 5278,
    "استاندارد": 5279,
    "پارتمان": 5280,
    "ساسی": 5281,
    "یص": 5282,
    "▁اباعبدال": 5283,
    "▁زعفران": 5284,
    "▁صداوسیما": 5285,
    "▁پرخاش": 5286,
    "اصغریان": 5287,
    "▁امیرآباد": 5288,
    "▁آویخت": 5289,
    "▁نوشیدن": 5290,
    "▁نابارور": 5291,
    "▁سنخیت": 5292,
    "▁باجناق": 5293,
    "▁دیپلم": 5294,
    "▁هنگفت": 5295,
    "▁نشنیده": 5296,
    "▁تفریح": 5297,
    "▁نوسانات": 5298,
    "▁آفریقا": 5299,
    "▁جوابگو": 5300,
    "▁ناگهان": 5301,
    "▁بدحجاب": 5302,
    "▁علاقمند": 5303,
    "▁سولاری": 5304,
    "▁تجربی": 5305,
    "▁تسامح": 5306,
    "▁تزاحم": 5307,
    "▁میانجی": 5308,
    "▁غیرمسئول": 5309,
    "▁آماتور": 5310,
    "▁معتمد": 5311,
    "▁گنجاند": 5312,
    "▁اشراف": 5313,
    "▁مسوول": 5314,
    "▁تخییر": 5315,
    "رسانی": 5316,
    "فرش": 5317,
    "▁تخصیص": 5318,
    "جدیدی": 5319,
    "▁دیسکت": 5320,
    "عطوف": 5321,
    "▁سازداخل": 5322,
    "▁مترجم": 5323,
    "هفتادوچهار": 5324,
    "▁پایبند": 5325,
    "هشتادوچهار": 5326,
    "▁کامپ": 5327,
    "▁پاکستان": 5328,
    "▁سینمای": 5329,
    "▁نسوز": 5330,
    "حث": 5331,
    "▁وخا": 5332,
    "▁ذم": 5333,
    "ابان": 5334,
    "▁مناز": 5335,
    "زنی": 5336,
    "عصر": 5337,
    "▁پاسیو": 5338,
    "▁گچ": 5339,
    "▁برآمدن": 5340,
    "ورام": 5341,
    "رض": 5342,
    "▁معالجات": 5343,
    "▁ناباب": 5344,
    "▁بدبین": 5345,
    "▁ارجح": 5346,
    "هنر": 5347,
    "طاق": 5348,
    "نساء": 5349,
    "فتاده": 5350,
    "▁کسرگردد": 5351,
    "▁دامادش": 5352,
    "ورخ": 5353,
    "▁قدم": 5354,
    "تگاه": 5355,
    "▁وآمد": 5356,
    "▁ریخت": 5357,
    "▁ارت": 5358,
    "عروض": 5359,
    "تداو": 5360,
    "یافت": 5361,
    "توانسته": 5362,
    "کسر": 5363,
    "▁نبرد": 5364,
    "خورده": 5365,
    "أثر": 5366,
    "▁نگذاشته": 5367,
    "▁نج": 5368,
    "▁خطرات": 5369,
    "▁پوشید": 5370,
    "فتا": 5371,
    "▁هویدا": 5372,
    "▁فهمید": 5373,
    "اص": 5374,
    "طرفین": 5375,
    "▁محسو": 5376,
    "▁الک": 5377,
    "آی": 5378,
    "▁شهو": 5379,
    "▁تط": 5380,
    "ستور": 5381,
    "گذارد": 5382,
    "▁رسول": 5383,
    "▁سوزن": 5384,
    "فیف": 5385,
    "تجار": 5386,
    "▁تابلوها": 5387,
    "یث": 5388,
    "▁پوش": 5389,
    "ترجم": 5390,
    "یگ": 5391,
    "یزی": 5392,
    "▁استاندار": 5393,
    "اقت": 5394,
    "جزی": 5395,
    "تصف": 5396,
    "احدی": 5397,
    "شر": 5398,
    "▁آس": 5399,
    "▁اخت": 5400,
    "دیوان": 5401,
    "▁چین": 5402,
    "حاد": 5403,
    "▁متعه": 5404,
    "اتهام": 5405,
    "انبار": 5406,
    "شناسی": 5407,
    "زان": 5408,
    "▁گیاه": 5409,
    "▁شار": 5410,
    "اضی": 5411,
    "▁تفکر": 5412,
    "رویی": 5413,
    "بوس": 5414,
    "قاق": 5415,
    "▁انز": 5416,
    "▁مقص": 5417,
    "گروه": 5418,
    "ولو": 5419,
    "▁عندالاس": 5420,
    "فزای": 5421,
    "گوئی": 5422,
    "▁پور": 5423,
    "▁مرج": 5424,
    "▁برادرز": 5425,
    "مجازات": 5426,
    "▁گرسن": 5427,
    "▁چهارصدم": 5428,
    "▁بخواه": 5429,
    "▁مرسو": 5430,
    "▁الخ": 5431,
    "جیر": 5432,
    "رق": 5433,
    "▁حساسی": 5434,
    "▁جهان": 5435,
    "▁مظ": 5436,
    "▁پیچید": 5437,
    "نونی": 5438,
    "▁معلو": 5439,
    "▁نفروخت": 5440,
    "عیین": 5441,
    "▁تراض": 5442,
    "▁متق": 5443,
    "نگی": 5444,
    "الله": 5445,
    "▁مم": 5446,
    "سرکا": 5447,
    "فرا": 5448,
    "یاران": 5449,
    "▁احم": 5450,
    "عرف": 5451,
    "راث": 5452,
    "▁طل": 5453,
    "رگاه": 5454,
    "أخیر": 5455,
    "▁آزم": 5456,
    "▁وشش": 5457,
    "ردیف": 5458,
    "زاع": 5459,
    "▁متداع": 5460,
    "▁عضل": 5461,
    "▁تخل": 5462,
    "المال": 5463,
    "اقرار": 5464,
    "▁فح": 5465,
    "▁نکا": 5466,
    "تان": 5467,
    "اما": 5468,
    "▁نرس": 5469,
    "جایی": 5470,
    "لذ": 5471,
    "آقا": 5472,
    "▁شرو": 5473,
    "ستای": 5474,
    "آرا": 5475,
    "▁لم": 5476,
    "غی": 5477,
    "زده": 5478,
    "نیست": 5479,
    "▁تنز": 5480,
    "دیدن": 5481,
    "ادگی": 5482,
    "▁دومی": 5483,
    "▁اندک": 5484,
    "ابل": 5485,
    "هرمز": 5486,
    "▁سطو": 5487,
    "کمال": 5488,
    "▁میبایست": 5489,
    "رسید": 5490,
    "رگز": 5491,
    "▁پوس": 5492,
    "جرد": 5493,
    "مقررا": 5494,
    "▁دهگ": 5495,
    "محرز": 5496,
    "جلس": 5497,
    "ینی": 5498,
    "▁مخدوم": 5499,
    "▁تصو": 5500,
    "▁نور": 5501,
    "کارم": 5502,
    "اذی": 5503,
    "مود": 5504,
    "▁شمس": 5505,
    "▁امان": 5506,
    "ریان": 5507,
    "مسک": 5508,
    "تکل": 5509,
    "▁صندل": 5510,
    "▁بط": 5511,
    "بها": 5512,
    "حی": 5513,
    "▁رسی": 5514,
    "▁مانتو": 5515,
    "زیرا": 5516,
    "ادله": 5517,
    "اخته": 5518,
    "زوجه": 5519,
    "▁خواهم": 5520,
    "پن": 5521,
    "▁خودسر": 5522,
    "حسو": 5523,
    "▁مک": 5524,
    "▁شنا": 5525,
    "▁حسابرس": 5526,
    "▁مسلما": 5527,
    "▁غیب": 5528,
    "شخصا": 5529,
    "▁افزار": 5530,
    "لاج": 5531,
    "▁رابط": 5532,
    "▁اشتر": 5533,
    "▁ببین": 5534,
    "رسیده": 5535,
    "شاع": 5536,
    "یدا": 5537,
    "▁گارد": 5538,
    "▁بتون": 5539,
    "هران": 5540,
    "خسارت": 5541,
    "مدلل": 5542,
    "عطی": 5543,
    "عب": 5544,
    "کثر": 5545,
    "▁خرا": 5546,
    "▁الاول": 5547,
    "▁قیوم": 5548,
    "▁ثان": 5549,
    "کارگ": 5550,
    "تمل": 5551,
    "▁نهادی": 5552,
    "▁وصی": 5553,
    "▁اتوم": 5554,
    "قال": 5555,
    "فتن": 5556,
    "منجز": 5557,
    "▁وص": 5558,
    "▁آموزه": 5559,
    "میز": 5560,
    "مطابق": 5561,
    "اسناد": 5562,
    "صادی": 5563,
    "مالک": 5564,
    "▁پایدار": 5565,
    "زوئی": 5566,
    "▁معذ": 5567,
    "▁اگ": 5568,
    "نشاه": 5569,
    "▁کرا": 5570,
    "اجم": 5571,
    "شاکی": 5572,
    "سمت": 5573,
    "▁فول": 5574,
    "بیت": 5575,
    "ورا": 5576,
    "سیل": 5577,
    "انتقال": 5578,
    "▁چرخ": 5579,
    "▁قوی": 5580,
    "اقتضا": 5581,
    "ثبات": 5582,
    "اهانه": 5583,
    "نس": 5584,
    "عتبا": 5585,
    "ناحی": 5586,
    "یاد": 5587,
    "ارش": 5588,
    "▁مفس": 5589,
    "وش": 5590,
    "ویز": 5591,
    "اقدام": 5592,
    "▁سوئی": 5593,
    "مطروح": 5594,
    "▁مرب": 5595,
    "طل": 5596,
    "خسارات": 5597,
    "▁اظهارت": 5598,
    "گرن": 5599,
    "▁تنق": 5600,
    "فعات": 5601,
    "▁اخر": 5602,
    "مصوب": 5603,
    "▁اشا": 5604,
    "هکار": 5605,
    "محتوی": 5606,
    "یران": 5607,
    "سک": 5608,
    "▁بید": 5609,
    "▁مهرها": 5610,
    "دفتر": 5611,
    "▁سالب": 5612,
    "▁غیراز": 5613,
    "▁هنر": 5614,
    "▁مف": 5615,
    "مدان": 5616,
    "▁متب": 5617,
    "اوض": 5618,
    "پنج": 5619,
    "اغه": 5620,
    "▁قنا": 5621,
    "منه": 5622,
    "قب": 5623,
    "▁یکصدو": 5624,
    "پیوست": 5625,
    "پار": 5626,
    "▁نظرخواه": 5627,
    "▁آزا": 5628,
    "▁پری": 5629,
    "▁گود": 5630,
    "▁تیره": 5631,
    "طع": 5632,
    "مالکیت": 5633,
    "غیابی": 5634,
    "ضرب": 5635,
    "نظریه": 5636,
    "مست": 5637,
    "▁فقه": 5638,
    "خارج": 5639,
    "▁عکسها": 5640,
    "▁برود": 5641,
    "▁نر": 5642,
    "اسب": 5643,
    "ادعای": 5644,
    "مقرر": 5645,
    "دفاعیات": 5646,
    "تابع": 5647,
    "▁تمل": 5648,
    "▁بنحو": 5649,
    "▁کنوا": 5650,
    "▁همچ": 5651,
    "▁اقر": 5652,
    "▁سوال": 5653,
    "امیه": 5654,
    "ذی": 5655,
    "▁شکن": 5656,
    "بودی": 5657,
    "نداشته": 5658,
    "▁فس": 5659,
    "رآباد": 5660,
    "برابر": 5661,
    "▁اردی": 5662,
    "بلی": 5663,
    "▁تشی": 5664,
    "▁مصا": 5665,
    "سو": 5666,
    "ننموده": 5667,
    "لیف": 5668,
    "▁نرسیدن": 5669,
    "مشارالیه": 5670,
    "لولی": 5671,
    "▁بزرگش": 5672,
    "▁خدای": 5673,
    "پوش": 5674,
    "▁پرت": 5675,
    "▁همدست": 5676,
    "مش": 5677,
    "▁زبا": 5678,
    "▁روستایی": 5679,
    "لمن": 5680,
    "زبان": 5681,
    "▁رض": 5682,
    "اسف": 5683,
    "یشن": 5684,
    "▁بعدال": 5685,
    "▁تقبی": 5686,
    "مستندات": 5687,
    "▁عو": 5688,
    "دلایل": 5689,
    "سلح": 5690,
    "الار": 5691,
    "افوی": 5692,
    "دگ": 5693,
    "هیچ": 5694,
    "یسر": 5695,
    "تغییر": 5696,
    "یض": 5697,
    "▁مملک": 5698,
    "معا": 5699,
    "کامل": 5700,
    "▁اتهامش": 5701,
    "▁متع": 5702,
    "▁معل": 5703,
    "عمو": 5704,
    "بیه": 5705,
    "لکت": 5706,
    "▁مدی": 5707,
    "اصلاح": 5708,
    "ثالث": 5709,
    "کلاس": 5710,
    "▁تری": 5711,
    "احتساب": 5712,
    "▁دای": 5713,
    "جمی": 5714,
    "الس": 5715,
    "▁خلق": 5716,
    "برند": 5717,
    "لقی": 5718,
    "تومان": 5719,
    "ارائ": 5720,
    "ذر": 5721,
    "▁دک": 5722,
    "▁نکن": 5723,
    "شهرداری": 5724,
    "روشی": 5725,
    "دستی": 5726,
    "▁الص": 5727,
    "▁مهری": 5728,
    "نن": 5729,
    "ایق": 5730,
    "▁تحو": 5731,
    "غل": 5732,
    "اردب": 5733,
    "▁هری": 5734,
    "موارد": 5735,
    "مخد": 5736,
    "القو": 5737,
    "▁عر": 5738,
    "قدیم": 5739,
    "ضم": 5740,
    "▁فوقال": 5741,
    "▁مجاوری": 5742,
    "▁زارع": 5743,
    "الو": 5744,
    "درمحضر": 5745,
    "▁عض": 5746,
    "▁اث": 5747,
    "▁میز": 5748,
    "▁تاری": 5749,
    "▁کاروان": 5750,
    "رین": 5751,
    "تولد": 5752,
    "اسلامی": 5753,
    "▁درآ": 5754,
    "صدقات": 5755,
    "▁پرس": 5756,
    "▁خس": 5757,
    "ارگاه": 5758,
    "انک": 5759,
    "ضای": 5760,
    "مستأجر": 5761,
    "دستور": 5762,
    "▁منجم": 5763,
    "▁گا": 5764,
    "▁ویز": 5765,
    "هو": 5766,
    "خرج": 5767,
    "مزاحمت": 5768,
    "▁سفار": 5769,
    "▁متباد": 5770,
    "حقیق": 5771,
    "نکرده": 5772,
    "آورد": 5773,
    "دارای": 5774,
    "امارات": 5775,
    "ویش": 5776,
    "▁انسا": 5777,
    "قیقا": 5778,
    "دریافت": 5779,
    "شناسنامه": 5780,
    "▁بس": 5781,
    "شنام": 5782,
    "▁اسید": 5783,
    "انگر": 5784,
    "▁سرگر": 5785,
    "▁پیشگ": 5786,
    "ثانی": 5787,
    "نسور": 5788,
    "تصمیم": 5789,
    "ردبی": 5790,
    "طلق": 5791,
    "▁منظر": 5792,
    "محکمه": 5793,
    "اعمال": 5794,
    "▁یاس": 5795,
    "▁تفا": 5796,
    "▁باجه": 5797,
    "▁زان": 5798,
    "شور": 5799,
    "گردی": 5800,
    "دستگاه": 5801,
    "دلالت": 5802,
    "تأمین": 5803,
    "شأ": 5804,
    "▁مصد": 5805,
    "غایت": 5806,
    "استعلام": 5807,
    "▁پرداخته": 5808,
    "انطباق": 5809,
    "مناسب": 5810,
    "▁سیس": 5811,
    "ناشی": 5812,
    "حرک": 5813,
    "▁نامش": 5814,
    "تخریب": 5815,
    "▁غیرمطل": 5816,
    "امنا": 5817,
    "تشریفات": 5818,
    "▁ودی": 5819,
    "پاسخ": 5820,
    "▁وش": 5821,
    "ربزرگ": 5822,
    "حاصل": 5823,
    "قدر": 5824,
    "▁نگهدار": 5825,
    "درصد": 5826,
    "▁پردا": 5827,
    "ورتی": 5828,
    "شرایط": 5829,
    "▁اکی": 5830,
    "▁ارو": 5831,
    "▁تأدیب": 5832,
    "▁گری": 5833,
    "بو": 5834,
    "استوار": 5835,
    "هار": 5836,
    "▁نامی": 5837,
    "▁یکسا": 5838,
    "فراز": 5839,
    "حم": 5840,
    "علت": 5841,
    "شهادت": 5842,
    "مسروق": 5843,
    "تکلیف": 5844,
    "▁مند": 5845,
    "خریدار": 5846,
    "لکیت": 5847,
    "هیئت": 5848,
    "موافق": 5849,
    "فسا": 5850,
    "اکسی": 5851,
    "▁موردب": 5852,
    "▁پلی": 5853,
    "روش": 5854,
    "مآل": 5855,
    "جی": 5856,
    "نادی": 5857,
    "▁فکر": 5858,
    "یو": 5859,
    "زند": 5860,
    "بناء": 5861,
    "▁بیاور": 5862,
    "خط": 5863,
    "▁دادس": 5864,
    "ارزش": 5865,
    "یرانی": 5866,
    "▁دروغی": 5867,
    "جسته": 5868,
    "تما": 5869,
    "▁سار": 5870,
    "دادن": 5871,
    "هشت": 5872,
    "شغل": 5873,
    "امضاء": 5874,
    "▁خت": 5875,
    "ثمن": 5876,
    "▁عب": 5877,
    "ترتیب": 5878,
    "روح": 5879,
    "انم": 5880,
    "مردود": 5881,
    "▁تغ": 5882,
    "مار": 5883,
    "▁متول": 5884,
    "ناء": 5885,
    "شا": 5886,
    "فای": 5887,
    "اطلاع": 5888,
    "ارتباط": 5889,
    "مرد": 5890,
    "اطلاق": 5891,
    "عبارت": 5892,
    "خرید": 5893,
    "▁برانگی": 5894,
    "▁محمو": 5895,
    "نائا": 5896,
    "برائت": 5897,
    "▁کوش": 5898,
    "قضائی": 5899,
    "برگ": 5900,
    "موقوف": 5901,
    "مفهوم": 5902,
    "▁نجس": 5903,
    "بطلا": 5904,
    "التفات": 5905,
    "اجرائی": 5906,
    "نمای": 5907,
    "کشاورز": 5908,
    "باد": 5909,
    "وفای": 5910,
    "بدو": 5911,
    "▁الق": 5912,
    "▁سرچ": 5913,
    "مأمور": 5914,
    "ردی": 5915,
    "خصص": 5916,
    "مبنای": 5917,
    "صدمات": 5918,
    "▁بز": 5919,
    "خبر": 5920,
    "▁ثم": 5921,
    "کارشناسان": 5922,
    "موقت": 5923,
    "کسی": 5924,
    "صراحت": 5925,
    "ابرا": 5926,
    "▁نز": 5927,
    "▁حک": 5928,
    "پایان": 5929,
    "▁خسار": 5930,
    "▁اتها": 5931,
    "سوء": 5932,
    "بعث": 5933,
    "نسل": 5934,
    "امکان": 5935,
    "سارت": 5936,
    "راست": 5937,
    "خروج": 5938,
    "▁شناسنام": 5939,
    "اضاف": 5940,
    "همسر": 5941,
    "مشارالیها": 5942,
    "تقاضا": 5943,
    "نگرفته": 5944,
    "تولید": 5945,
    "دائم": 5946,
    "اقد": 5947,
    "اشی": 5948,
    "▁عندالا": 5949,
    "▁مغاز": 5950,
    "▁ضرور": 5951,
    "هوی": 5952,
    "غف": 5953,
    "▁اشار": 5954,
    "عضا": 5955,
    "استحقاق": 5956,
    "چهارمیلی": 5957,
    "نقد": 5958,
    "ماترک": 5959,
    "▁مشا": 5960,
    "رضا": 5961,
    "مصداق": 5962,
    "...": 5963,
    "وراثت": 5964,
    "جموع": 5965,
    "▁اکس": 5966,
    "تهی": 5967,
    "زار": 5968,
    "▁پسران": 5969,
    "اسا": 5970,
    "ارع": 5971,
    "▁نوشت": 5972,
    "غو": 5973,
    "ممنوع": 5974,
    "وقو": 5975,
    "حراز": 5976,
    "تفریط": 5977,
    "برا": 5978,
    "منعقد": 5979,
    "متداعی": 5980,
    "الطرفین": 5981,
    "دگا": 5982,
    "نیافته": 5983,
    "توانست": 5984,
    "سفید": 5985,
    "▁تعرف": 5986,
    "کودک": 5987,
    "▁دادخو": 5988,
    "جدی": 5989,
    "دانست": 5990,
    "▁افرا": 5991,
    "خلاص": 5992,
    "تجاوز": 5993,
    "مجوز": 5994,
    "فرزندان": 5995,
    "آگاه": 5996,
    "▁فردو": 5997,
    "▁نگران": 5998,
    "تخلف": 5999,
    "بیمارستان": 6000,
    "▁خدش": 6001,
    "هفت": 6002,
    "نق": 6003,
    "سلاح": 6004,
    "طلبی": 6005,
    "تودیع": 6006,
    "مغا": 6007,
    "البرائ": 6008,
    "دبی": 6009,
    "کارگر": 6010,
    "ایام": 6011,
    "▁نگیر": 6012,
    "شعار": 6013,
    "خودش": 6014,
    "نگهبان": 6015,
    "پدر": 6016,
    "▁بلاا": 6017,
    "جواز": 6018,
    "آمیز": 6019,
    "لس": 6020,
    "پول": 6021,
    "عارض": 6022,
    "سپرده": 6023,
    "▁جست": 6024,
    "لزوما": 6025,
    "مشابه": 6026,
    "کارمند": 6027,
    "▁محتر": 6028,
    "▁تأیی": 6029,
    "▁مینمای": 6030,
    "▁متوفا": 6031,
    "مقید": 6032,
    "خانوادگ": 6033,
    "فساد": 6034,
    "شوی": 6035,
    "▁ظر": 6036,
    "پوست": 6037,
    "مقدور": 6038,
    "انقطاع": 6039,
    "▁سوئ": 6040,
    "▁نیافت": 6041,
    "الناس": 6042,
    "مکالم": 6043,
    "شناخت": 6044,
    "مستاجر": 6045,
    "اشت": 6046,
    "▁دادگ": 6047,
    "شاخه": 6048,
    "اشتراک": 6049,
    "آسی": 6050,
    "▁دوماه": 6051,
    "▁غیرمن": 6052,
    "منطقی": 6053,
    "دراختیار": 6054,
    "آرای": 6055,
    "ردا": 6056,
    "نفق": 6057,
    "ثمر": 6058,
    "قلب": 6059,
    "لوی": 6060,
    "▁وگ": 6061,
    "روها": 6062,
    "▁شاخ": 6063,
    "وره": 6064,
    "صوب": 6065,
    "▁نمیتوان": 6066,
    "▁فراخوان": 6067,
    "▁ارتکا": 6068,
    "البی": 6069,
    "نیامد": 6070,
    "قاپی": 6071,
    "نداشتن": 6072,
    "کتاب": 6073,
    "▁یکبار": 6074,
    "نتقال": 6075,
    "نندگ": 6076,
    "▁خسارا": 6077,
    "▁حاض": 6078,
    "محمد": 6079,
    "بایع": 6080,
    "جوابیه": 6081,
    "وخته": 6082,
    "ضرور": 6083,
    "دهای": 6084,
    "أیید": 6085,
    "قص": 6086,
    "مطالبات": 6087,
    "▁قدرمت": 6088,
    "▁محجو": 6089,
    "▁دیسک": 6090,
    "ذاشتن": 6091,
    "چنان": 6092,
    "▁عزیز": 6093,
    "غلیظ": 6094,
    "وصوف": 6095,
    "ایست": 6096,
    "▁مربو": 6097,
    "حفاظ": 6098,
    "▁تار": 6099,
    "تشهادیه": 6100,
    "▁اعترا": 6101,
    "ثیر": 6102,
    "اریخ": 6103,
    "▁تعی": 6104,
    "یراد": 6105,
    "▁فرآور": 6106,
    "▁تذکرا": 6107,
    "▁استشهادی": 6108,
    "▁ذک": 6109,
    "چاق": 6110,
    "عترض": 6111,
    "تراک": 6112,
    "▁گزار": 6113,
    "اطلاعات": 6114,
    "طالب": 6115,
    "باغ": 6116,
    "مح": 6117,
    "▁مه": 6118,
    "▁صورتمج": 6119,
    "▁انتقا": 6120,
    "ساکن": 6121
  }
}