{
  "src_word2id": {
    "<pad>": 0,
    "<s>": 1,
    "</s>": 2,
    "<unk>": 3,
    "▁به": 4,
    "ی": 5,
    "ه": 6,
    "▁در": 7,
    "▁از": 8,
    "▁با": 9,
    "▁": 10,
    "▁دادگاه": 11,
    "▁.": 12,
    "▁می": 13,
    "▁که": 14,
    "▁صادر": 15,
    "▁قانون": 16,
    "▁را": 17,
    "▁است": 18,
    "▁ماده": 19,
    "▁آقای": 20,
    "▁بر": 21,
    "_": 22,
    "▁این": 23,
    "▁دادنامه": 24,
    "▁رأی": 25,
    "▁دادرسی": 26,
    "▁تجدیدنظرخواه": 27,
    "▁آن": 28,
    "است": 29,
    "▁پرونده": 30,
    "▁باشد": 31,
    "▁عموم": 32,
    "▁تجدیدنظر": 33,
    "▁خواهان": 34,
    "▁تهران": 35,
    "▁شماره": 36,
    "▁الف": 37,
    "ات": 38,
    "▁دعوی": 39,
    "▁شعبه": 40,
    "▁نظر": 41,
    "▁شده": 42,
    "▁خصوص": 43,
    "▁آیین": 44,
    "▁حکم": 45,
    "▁قابل": 46,
    "▁م": 47,
    "ت": 48,
    "▁نماید": 49,
    "▁های": 50,
    "▁قرار": 51,
    "▁متهم": 52,
    "▁مورخ": 53,
    "▁اعلام": 54,
    "▁یک": 55,
    "▁خواسته": 56,
    "▁مدنی": 57,
    "▁توجه": 58,
    "ا": 59,
    "▁پرداخت": 60,
    "▁روز": 61,
    "▁خوانده": 62,
    "▁استناد": 63,
    "▁اینک": 64,
    "▁نسبت": 65,
    "▁انقلاب": 66,
    "▁ظرف": 67,
    "▁نموده": 68,
    "ن": 69,
    "▁وکالت": 70,
    "▁استان": 71,
    "▁پس": 72,
    "▁رد": 73,
    "▁عدم": 74,
    "▁ابلاغ": 75,
    "ان": 76,
    "▁خانم": 77,
    "▁رسیدگی": 78,
    "▁طرفیت": 79,
    "▁فرزند": 80,
    "▁اعتراض": 81,
    "▁ریال": 82,
    "▁موضوع": 83,
    "▁گردد": 84,
    "▁مستندا": 85,
    "▁اتهام": 86,
    "▁موجب": 87,
    "▁صدور": 88,
    "▁لذا": 89,
    "▁محکوم": 90,
    "▁حق": 91,
    "▁مجازات": 92,
    "▁بوده": 93,
    "س": 94,
    "▁حضور": 95,
    "▁مورد": 96,
    "م": 97,
    "▁تاریخ": 98,
    "▁وی": 99,
    "▁نیز": 100,
    "▁امور": 101,
    "▁قطعی": 102,
    "▁جزای": 103,
    "▁دادخواست": 104,
    "▁بیست": 105,
    "▁مذکور": 106,
    "▁شاکی": 107,
    "▁ثبت": 108,
    "▁کیفر": 109,
    "▁محتوی": 110,
    "▁گردیده": 111,
    "▁جهت": 112,
    "▁نمی": 113,
    "▁بند": 114,
    "▁محترم": 115,
    "▁سال": 116,
    "¬": 117,
    "▁مبلغ": 118,
    "▁قانونی": 119,
    "د": 120,
    "▁تأیید": 121,
    "▁شکایت": 122,
    "▁وارد": 123,
    "نقض": 124,
    "▁محاکم": 125,
    "▁مواد": 126,
    "ین": 127,
    "▁اسلامی": 128,
    "▁ضمن": 129,
    "▁ا": 130,
    "▁بدو": 131,
    "▁میلیون": 132,
    "▁دارد": 133,
    "▁صلاحیت": 134,
    "▁سند": 135,
    "ب": 136,
    "▁حب": 137,
    "▁وکیل": 138,
    "▁دو": 139,
    "▁خود": 140,
    "▁ت": 141,
    "▁شرح": 142,
    "▁دلیل": 143,
    "▁غیر": 144,
    "▁دادسرا": 145,
    "▁شود": 146,
    "▁چک": 147,
    "تشخیص": 148,
    "▁عنایت": 149,
    "▁تقدیم": 150,
    "▁لح": 151,
    "اظ": 152,
    "▁صورت": 153,
    "▁ایراد": 154,
    "▁ب": 155,
    "ش": 156,
    "▁حقوقی": 157,
    "▁ها": 158,
    "▁یا": 159,
    "▁محکومیت": 160,
    "▁اصل": 161,
    "▁برای": 162,
    "▁اظهارات": 163,
    "▁مطالب": 164,
    "▁دایر": 165,
    "▁عنوان": 166,
    "ل": 167,
    "▁بزه": 168,
    "▁نقد": 169,
    "▁ناحی": 170,
    "▁ال": 171,
    "▁دیوان": 172,
    "▁مبن": 173,
    "▁اول": 174,
    "▁اساس": 175,
    "▁عمل": 176,
    "▁شرکت": 177,
    "ع": 178,
    "▁رسمی": 179,
    "▁ارائ": 180,
    "▁فوق": 181,
    "▁طرفین": 182,
    "▁نامه": 183,
    "▁داشته": 184,
    "▁کرده": 185,
    "▁واخواه": 186,
    "▁ردیف": 187,
    "▁هر": 188,
    "▁نیست": 189,
    "▁زوج": 190,
    "▁لایحه": 191,
    "▁درخواست": 192,
    "▁معترض": 193,
    "▁اجرای": 194,
    "▁زوجه": 195,
    "▁نام": 196,
    "که": 197,
    "▁مقرر": 198,
    "▁کشور": 199,
    "▁اند": 200,
    "▁علیه": 201,
    "▁محرز": 202,
    "▁قرارداد": 203,
    "خواسته": 204,
    "یت": 205,
    "می": 206,
    "▁داده": 207,
    "▁مرجع": 208,
    "▁موجه": 209,
    "▁سوی": 210,
    "▁اوراق": 211,
    "▁تعزیر": 212,
    "▁ماه": 213,
    "▁مال": 214,
    "▁مدت": 215,
    "▁نشده": 216,
    "▁جلسه": 217,
    "▁مندرج": 218,
    "▁دیگر": 219,
    "▁حسب": 220,
    "▁کیفرخواست": 221,
    "▁ارجاع": 222,
    "ایت": 223,
    "▁اختلاف": 224,
    "▁پلاک": 225,
    "▁ابطال": 226,
    "▁عالی": 227,
    "▁نامبرد": 228,
    "▁خسارت": 229,
    "▁ن": 230,
    "این": 231,
    "▁ارسال": 232,
    "▁علی": 233,
    "▁عنه": 234,
    "▁تا": 235,
    "▁من": 236,
    "▁دولت": 237,
    "▁ملک": 238,
    "▁اداره": 239,
    "▁احراز": 240,
    "▁اسناد": 241,
    "▁خواندگان": 242,
    "▁دوم": 243,
    "▁انجام": 244,
    "▁هزینه": 245,
    "▁مطابق": 246,
    "بت": 247,
    "لت": 248,
    "▁بنابر": 249,
    "▁برائت": 250,
    "▁زیرا": 251,
    "▁سه": 252,
    "▁س": 253,
    "▁هم": 254,
    "▁رع": 255,
    "▁داور": 256,
    "▁ضرب": 257,
    "▁اقدام": 258,
    "▁مرات": 259,
    "وف": 260,
    "▁ف": 261,
    "▁گزارش": 262,
    "▁تبصره": 263,
    "▁ادعای": 264,
    "▁جرم": 265,
    "ند": 266,
    "▁بودن": 267,
    "باشد": 268,
    "▁مصوب": 269,
    "▁الزام": 270,
    "ر": 271,
    "▁موص": 272,
    "▁خسارات": 273,
    "▁سایر": 274,
    "▁انتقال": 275,
    "ماع": 276,
    "▁مطروح": 277,
    "▁بانک": 278,
    "▁تعیین": 279,
    "▁مفاد": 280,
    "ذکر": 281,
    "ذا": 282,
    "▁ملاحظ": 283,
    "اده": 284,
    "▁تقاضای": 285,
    "▁شش": 286,
    "▁واقع": 287,
    "▁ابراز": 288,
    "شده": 289,
    "▁دفتر": 290,
    "▁تنظیم": 291,
    "▁ح": 292,
    "▁پنج": 293,
    "حمل": 294,
    "های": 295,
    "▁قسمت": 296,
    "▁دانسته": 297,
    "▁بخش": 298,
    "▁ای": 299,
    "▁اع": 300,
    "▁نظریه": 301,
    "▁فاقد": 302,
    "▁حیث": 303,
    "▁وجه": 304,
    "گی": 305,
    "▁طرح": 306,
    "▁غیابی": 307,
    "▁محل": 308,
    "▁امر": 309,
    "▁استدلال": 310,
    "▁مالکیت": 311,
    "▁نبوده": 312,
    "▁وجود": 313,
    "▁موجود": 314,
    "▁ندار": 315,
    "▁گواهی": 316,
    "▁باب": 317,
    "▁طبق": 318,
    "▁صرف": 319,
    "توسط": 320,
    "▁مقررا": 321,
    "▁تمکین": 322,
    "▁بطلا": 323,
    "▁اثبات": 324,
    "▁مشترک": 325,
    "▁سابق": 326,
    "▁استفاده": 327,
    "▁بی": 328,
    "خصوص": 329,
    "▁اعتبار": 330,
    "ق": 331,
    "▁اظهار": 332,
    "▁شهرستان": 333,
    "▁اجاره": 334,
    "▁فقر": 335,
    "یشان": 336,
    "▁ر": 337,
    "▁بنا": 338,
    "▁همان": 339,
    "▁سرقت": 340,
    "ده": 341,
    "▁دفاعیات": 342,
    "یه": 343,
    "▁وقو": 344,
    "▁انتساب": 345,
    "▁عین": 346,
    "▁بین": 347,
    "▁ش": 348,
    "▁نداشته": 349,
    "▁ننموده": 350,
    "ء": 351,
    "▁هیچ": 352,
    "▁برابر": 353,
    "▁طلاق": 354,
    "▁کارشناس": 355,
    "▁انتظا": 356,
    "▁تصرف": 357,
    "▁د": 358,
    "▁تحویل": 359,
    "▁مرحله": 360,
    "▁تحم": 361,
    "▁مه": 362,
    "▁دلایل": 363,
    "شلاق": 364,
    "▁قبل": 365,
    "▁منزل": 366,
    "▁تأخیر": 367,
    "▁فسخ": 368,
    "▁کامل": 369,
    "▁مربوط": 370,
    "▁کلاهبردار": 371,
    "▁حل": 372,
    "▁گرفته": 373,
    "▁مستندات": 374,
    "▁تحقیقات": 375,
    "▁تغییر": 376,
    "▁تشکیل": 377,
    "▁کار": 378,
    "▁موجبات": 379,
    "▁پذیر": 380,
    "▁مرقوم": 381,
    "▁تأدی": 382,
    "▁او": 383,
    "▁دفاع": 384,
    "▁نگردید": 385,
    "▁مزبور": 386,
    "▁میزان": 387,
    "ید": 388,
    "رسی": 389,
    "▁هزار": 390,
    "▁اقرار": 391,
    "▁فروش": 392,
    "▁کلاس": 393,
    "▁اصلاح": 394,
    "دیه": 395,
    "▁عمد": 396,
    "▁دعوای": 397,
    "▁رابطه": 398,
    "▁طریق": 399,
    "▁زمان": 400,
    "▁نفق": 401,
    "▁ط": 402,
    "▁معامل": 403,
    "▁حاضر": 404,
    "▁محسوب": 405,
    "▁مت": 406,
    "▁مشارالیه": 407,
    "▁آمده": 408,
    "▁ثالث": 409,
    "نامه": 410,
    "▁هیأت": 411,
    "به": 412,
    "▁صح": 413,
    "▁موارد": 414,
    "▁نحو": 415,
    "▁تومان": 416,
    "▁زندگی": 417,
    "▁عقد": 418,
    "▁توضیح": 419,
    "▁ثابت": 420,
    "▁اموال": 421,
    "▁تو": 422,
    "▁مدارک": 423,
    "وق": 424,
    "▁جعل": 425,
    "▁مستند": 426,
    "▁شهرداری": 427,
    "▁خارج": 428,
    "▁دادگستر": 429,
    "▁ده": 430,
    "▁ارتکاب": 431,
    "▁نتیج": 432,
    "▁یافته": 433,
    "▁کند": 434,
    "▁قضایی": 435,
    "▁اخذ": 436,
    "▁چنین": 437,
    "▁فرجام": 438,
    "▁موکل": 439,
    "▁موا": 440,
    "▁ج": 441,
    "▁ولی": 442,
    "▁کلی": 443,
    "▁مسلم": 444,
    "▁چ": 445,
    "▁احوال": 446,
    "▁نمایند": 447,
    "زین": 448,
    "▁فیه": 449,
    "▁همین": 450,
    "▁اقام": 451,
    "ثر": 452,
    "▁اح": 453,
    "ثری": 454,
    "▁اجرت": 455,
    "▁تجدید": 456,
    "▁خواهد": 457,
    "▁طرف": 458,
    "لذا": 459,
    "▁بعد": 460,
    "▁نکرده": 461,
    "چه": 462,
    "▁خانواد": 463,
    "▁دارای": 464,
    "▁وفق": 465,
    "▁دستور": 466,
    "▁ک": 467,
    "طبق": 468,
    "دارد": 469,
    "▁پزشک": 470,
    "▁تحت": 471,
    "▁وصف": 472,
    "ف": 473,
    "▁اشکال": 474,
    "تساب": 475,
    "▁بلا": 476,
    "▁ندانسته": 477,
    "▁تجدیدنظرخوانده": 478,
    "▁قرائن": 479,
    "▁حقوق": 480,
    "▁نمود": 481,
    "بود": 482,
    "▁استوار": 483,
    "▁رو": 484,
    "▁قطع": 485,
    "▁مقام": 486,
    "▁دانگ": 487,
    "▁صند": 488,
    "انت": 489,
    "▁جمل": 490,
    "▁مراجع": 491,
    "▁مبایعه": 492,
    "▁شهود": 493,
    "▁مالک": 494,
    "▁دریافت": 495,
    "▁توجها": 496,
    "▁فی": 497,
    "▁آپارتمان": 498,
    "انه": 499,
    "▁المثل": 500,
    "▁ثانی": 501,
    "▁وصول": 502,
    "▁مستأجر": 503,
    "▁جهات": 504,
    "▁ازدواج": 505,
    "▁چهار": 506,
    "▁مجموع": 507,
    "▁اولا": 508,
    "▁دست": 509,
    "طرح": 510,
    "▁تعقیب": 511,
    "▁مشاع": 512,
    "▁اعمال": 513,
    "▁عاد": 514,
    "رداد": 515,
    "▁تلقی": 516,
    "هم": 517,
    "▁مشارکت": 518,
    "▁مزاحمت": 519,
    "▁چو": 520,
    "کن": 521,
    "▁ه": 522,
    "▁بدین": 523,
    "▁پیوست": 524,
    "▁یاد": 525,
    "▁اعسار": 526,
    "▁شناسنامه": 527,
    "▁آزاد": 528,
    "▁پیش": 529,
    "نماید": 530,
    "▁توان": 531,
    "▁محکمه": 532,
    "▁علت": 533,
    "▁صحیح": 534,
    "▁حال": 535,
    "▁الوکال": 536,
    "▁مانحن": 537,
    "▁تصمیم": 538,
    "▁فرا": 539,
    "▁زمین": 540,
    "ون": 541,
    "ط": 542,
    "ای": 543,
    "▁تلفن": 544,
    "▁دی": 545,
    "▁اصول": 546,
    "▁شایست": 547,
    "▁مدعی": 548,
    "▁لازم": 549,
    "▁دلالت": 550,
    "▁سی": 551,
    "ضمن": 552,
    "فع": 553,
    "▁خودرو": 554,
    "▁مغازه": 555,
    "▁ایام": 556,
    "▁فرع": 557,
    "▁مشروب": 558,
    "▁فقد": 559,
    "▁اما": 560,
    "▁و": 561,
    "▁شد": 562,
    "▁استعلام": 563,
    "▁اصدار": 564,
    "▁کارشناسی": 565,
    "▁تأمین": 566,
    "▁تخفیف": 567,
    "▁مجعول": 568,
    "▁مرتکب": 569,
    "له": 570,
    "▁ع": 571,
    "▁نفر": 572,
    "▁ترک": 573,
    "▁ذیل": 574,
    "▁ناشی": 575,
    "▁جرح": 576,
    "▁درصد": 577,
    "▁اعا": 578,
    "▁خاص": 579,
    "▁ایران": 580,
    "▁ل": 581,
    "▁گون": 582,
    "▁عهد": 583,
    "▁حساب": 584,
    "▁تخریب": 585,
    "مابین": 586,
    "▁دستگاه": 587,
    "خانه": 588,
    "▁امکان": 589,
    "هین": 590,
    "▁خواهی": 591,
    "پ": 592,
    "▁تعهد": 593,
    "▁شخص": 594,
    "▁مجدد": 595,
    "▁حاصل": 596,
    "▁ایجاد": 597,
    "طی": 598,
    "▁انطباق": 599,
    "▁بیان": 600,
    "سوم": 601,
    "▁دار": 602,
    "▁واحد": 603,
    "اه": 604,
    "▁بزهکاری": 605,
    "▁تهدید": 606,
    "▁راجع": 607,
    "▁حکایت": 608,
    "نی": 609,
    "▁قید": 610,
    "▁پاسخ": 611,
    "▁املاک": 612,
    "▁دهد": 613,
    "▁نیامد": 614,
    "▁منعکس": 615,
    "▁سازمان": 616,
    "▁ایجا": 617,
    "▁دعوا": 618,
    "▁شرط": 619,
    "▁تشریفات": 620,
    "▁وقت": 621,
    "▁نخست": 622,
    "▁روی": 623,
    "ری": 624,
    "▁مسروق": 625,
    "▁اخیر": 626,
    "گان": 627,
    "وجه": 628,
    "▁اجرایی": 629,
    "▁ید": 630,
    "▁وکلا": 631,
    "رت": 632,
    "▁شهر": 633,
    "▁نه": 634,
    "▁احکام": 635,
    "▁امانت": 636,
    "▁شدن": 637,
    "▁ساز": 638,
    "اء": 639,
    "▁شورا": 640,
    "▁انض": 641,
    "▁توافق": 642,
    "▁هفت": 643,
    "▁آ": 644,
    "مام": 645,
    "ابت": 646,
    "▁ورود": 647,
    "▁اداری": 648,
    "بس": 649,
    "▁عدالت": 650,
    "▁ماهیت": 651,
    "▁شرایط": 652,
    "▁گردید": 653,
    "▁راست": 654,
    "▁الکل": 655,
    "ست": 656,
    "▁ام": 657,
    "▁مرکز": 658,
    "▁مهریه": 659,
    "▁تجار": 660,
    "▁علاو": 661,
    "▁معرف": 662,
    "▁قبول": 663,
    "▁نمودن": 664,
    "▁نداده": 665,
    "▁تجویز": 666,
    "▁امار": 667,
    "▁سپ": 668,
    "▁متن": 669,
    "▁سر": 670,
    "▁جنب": 671,
    "▁صالح": 672,
    "▁بایست": 673,
    "▁زوجی": 674,
    "▁کل": 675,
    "راضی": 676,
    "و": 677,
    "▁شهادت": 678,
    "▁کیفیت": 679,
    "▁مباد": 680,
    "▁تحصیل": 681,
    "▁ق": 682,
    "▁تحق": 683,
    "▁بازداشت": 684,
    "▁کرد": 685,
    "▁مالی": 686,
    "▁چه": 687,
    "▁تکلیف": 688,
    "▁تعرف": 689,
    "▁له": 690,
    "▁قاچاق": 691,
    "یل": 692,
    "گردد": 693,
    "ناظر": 694,
    "▁جدید": 695,
    "▁تخل": 696,
    "قوق": 697,
    "▁ثمن": 698,
    "رد": 699,
    "▁سهم": 700,
    "▁بیمه": 701,
    "▁طرفی": 702,
    "▁مرحوم": 703,
    "▁صد": 704,
    "▁موافق": 705,
    "▁شک": 706,
    "▁برده": 707,
    "▁جل": 708,
    "▁تجارت": 709,
    "▁صدم": 710,
    "▁تصویر": 711,
    "▁مدافع": 712,
    "▁شغل": 713,
    "▁اختیار": 714,
    "وزه": 715,
    "▁فر": 716,
    "▁شکا": 717,
    "▁مصدق": 718,
    "▁خریدار": 719,
    "▁بدل": 720,
    "▁شرعی": 721,
    "▁رس": 722,
    "▁دارند": 723,
    "▁اشخاص": 724,
    "▁گواه": 725,
    "▁داشتن": 726,
    "ال": 727,
    "شد": 728,
    "▁ماهو": 729,
    "▁حد": 730,
    "▁وضعیت": 731,
    "▁لغایت": 732,
    "▁خویش": 733,
    "▁مشمول": 734,
    "▁مرا": 735,
    "▁هیئت": 736,
    "▁معمول": 737,
    "▁قصد": 738,
    "▁متعلق": 739,
    "قه": 740,
    "صد": 741,
    "▁دین": 742,
    "▁رغ": 743,
    "▁رضایت": 744,
    "▁مدیر": 745,
    "در": 746,
    "▁اختلا": 747,
    "▁توقیف": 748,
    "▁چند": 749,
    "▁حض": 750,
    "▁ملا": 751,
    "▁رانند": 752,
    "قوم": 753,
    "▁صریح": 754,
    "▁معین": 755,
    "▁پدر": 756,
    "▁اس": 757,
    "▁کننده": 758,
    "▁صفح": 759,
    "▁ادعا": 760,
    "▁تمام": 761,
    "▁نکاح": 762,
    "▁تبد": 763,
    "▁مکلف": 764,
    "▁کشف": 765,
    "▁بازپرس": 766,
    "▁همچن": 767,
    "حل": 768,
    "▁متولد": 769,
    "▁قیمت": 770,
    "▁جری": 771,
    "▁تجدیدنظرخواهان": 772,
    "▁همگی": 773,
    "▁کافی": 774,
    "ک": 775,
    "▁خلع": 776,
    "▁دادیار": 777,
    "▁جزء": 778,
    "▁منع": 779,
    "▁عدوان": 780,
    "▁انکار": 781,
    "دامه": 782,
    "توجه": 783,
    "▁خرید": 784,
    "▁اگر": 785,
    "یکن": 786,
    "▁اهل": 787,
    "▁اصلاحی": 788,
    "▁مجرمیت": 789,
    "میع": 790,
    "▁سمت": 791,
    "▁هشت": 792,
    "▁همسرش": 793,
    "▁موجر": 794,
    "▁واصل": 795,
    "▁جامع": 796,
    "▁فرض": 797,
    "▁نفع": 798,
    "▁کمیسیون": 799,
    "▁تحقیق": 800,
    "یق": 801,
    "▁استنباط": 802,
    "▁ساکن": 803,
    "پس": 804,
    "▁خلاف": 805,
    "▁لوا": 806,
    "▁ما": 807,
    "ابط": 808,
    "▁مصاد": 809,
    "▁نوع": 810,
    "ها": 811,
    "▁مبانی": 812,
    "▁ادله": 813,
    "اهم": 814,
    "▁اظهارنظر": 815,
    "▁حالی": 816,
    "▁کاربر": 817,
    "▁دادستان": 818,
    "▁نامشروع": 819,
    "▁بیع": 820,
    "▁عضو": 821,
    "▁امضاء": 822,
    "▁قواعد": 823,
    "▁واگذار": 824,
    "▁مردود": 825,
    "▁چهارم": 826,
    "▁مسکن": 827,
    "▁ماد": 828,
    "▁کردن": 829,
    "▁خ": 830,
    "▁خدشه": 831,
    "▁بل": 832,
    "یست": 833,
    "دی": 834,
    "▁اصداری": 835,
    "▁ترتیب": 836,
    "اند": 837,
    "▁ذکر": 838,
    "▁چنان": 839,
    "▁صادرکنند": 840,
    "▁اثر": 841,
    "▁کسب": 842,
    "▁نزد": 843,
    "▁شوهر": 844,
    "▁مارال": 845,
    "▁ارز": 846,
    "▁مصرف": 847,
    "▁مسئولیت": 848,
    "▁برخی": 849,
    "▁رهن": 850,
    "▁فعل": 851,
    "▁تفکیک": 852,
    "▁سن": 853,
    "▁همسر": 854,
    "▁قتل": 855,
    "▁مع": 856,
    "▁تخلف": 857,
    "▁طور": 858,
    "▁فوت": 859,
    "▁متقاضی": 860,
    "▁احداث": 861,
    "▁نظام": 862,
    "▁اتومبیل": 863,
    "▁تسلیم": 864,
    "▁برگ": 865,
    "▁جمع": 866,
    "▁تهی": 867,
    "▁اجرا": 868,
    "▁باقی": 869,
    "▁جم": 870,
    "خواهی": 871,
    "▁همراه": 872,
    "▁پنجم": 873,
    "▁اشتباه": 874,
    "▁ارش": 875,
    "▁متر": 876,
    "▁رف": 877,
    "▁اخطار": 878,
    "▁اجتماع": 879,
    "▁منظور": 880,
    "▁ذی": 881,
    "▁تقسیم": 882,
    "▁عملیات": 883,
    "▁شق": 884,
    "▁ارتباط": 885,
    "▁نهایت": 886,
    "▁افترا": 887,
    "گاه": 888,
    "▁هرگ": 889,
    "▁ار": 890,
    "واند": 891,
    "▁مست": 892,
    "شدید": 893,
    "▁نیم": 894,
    "▁خصوصی": 895,
    "▁وجوه": 896,
    "▁مشاور": 897,
    "▁منطقه": 898,
    "ونه": 899,
    "▁دعاوی": 900,
    "ز": 901,
    "▁عبارت": 902,
    "▁معاون": 903,
    "داری": 904,
    "بیع": 905,
    "▁خی": 906,
    "▁علم": 907,
    "تا": 908,
    "▁اقدامات": 909,
    "▁نفی": 910,
    "▁دفاعی": 911,
    "▁تعهدات": 912,
    "▁وجاهت": 913,
    "قات": 914,
    "▁مستقل": 915,
    "▁اطلاع": 916,
    "▁طفل": 917,
    "▁اعتراضی": 918,
    "▁اشاره": 919,
    "▁حقی": 920,
    "▁مناف": 921,
    "▁اولی": 922,
    "▁انفاق": 923,
    "▁داد": 924,
    "▁نگهداری": 925,
    "▁نگرفته": 926,
    "▁دا": 927,
    "عادل": 928,
    "▁صراحت": 929,
    "▁وضع": 930,
    "▁وا": 931,
    "▁اتهامات": 932,
    "▁گذشت": 933,
    "یات": 934,
    "▁مشخص": 935,
    "▁دائم": 936,
    "فته": 937,
    "▁معنون": 938,
    "▁قضائی": 939,
    "▁بنام": 940,
    "▁داشت": 941,
    "▁قوا": 942,
    "▁شکل": 943,
    "▁زن": 944,
    "▁گیرد": 945,
    "▁نیاورد": 946,
    "حاشی": 947,
    "نظر": 948,
    "▁خیا": 949,
    "▁تنفیذ": 950,
    "▁افراد": 951,
    "وحد": 952,
    "▁توضیحات": 953,
    "ذ": 954,
    "▁سهام": 955,
    "▁اجرائی": 956,
    "سجلی": 957,
    "▁قرائ": 958,
    "▁اتخاذ": 959,
    "▁ممانعت": 960,
    "▁اقامت": 961,
    "▁مدیریت": 962,
    "ره": 963,
    "▁مسکو": 964,
    "▁مدلول": 965,
    "▁مخدو": 966,
    "▁گرفتن": 967,
    "ار": 968,
    "▁متعاقب": 969,
    "وری": 970,
    "ث": 971,
    "▁مادر": 972,
    "▁آئین": 973,
    "▁مختلف": 974,
    "▁تعداد": 975,
    "▁پایان": 976,
    "▁اقار": 977,
    "قط": 978,
    "▁مبنای": 979,
    "▁صلح": 980,
    "▁وظایف": 981,
    "▁خواستار": 982,
    "▁یکدیگر": 983,
    "▁مشخصات": 984,
    "▁قراردادی": 985,
    "▁لک": 986,
    "▁صدمات": 987,
    "▁منته": 988,
    "ررسی": 989,
    "▁نیاز": 990,
    "▁قبال": 991,
    "▁خانه": 992,
    "غال": 993,
    "▁خواه": 994,
    "▁اج": 995,
    "▁محق": 996,
    "▁استحقاق": 997,
    "▁عدد": 998,
    "▁دعو": 999,
    "▁وسی": 1000,
    "▁مس": 1001,
    "▁منتسب": 1002,
    "▁موقت": 1003,
    "▁حمل": 1004,
    "نین": 1005,
    "▁قو": 1006,
    "▁مو": 1007,
    "رزش": 1008,
    "زل": 1009,
    "کان": 1010,
    "▁تصریح": 1011,
    "▁کشاورز": 1012,
    "شود": 1013,
    "▁دیوار": 1014,
    "یح": 1015,
    "▁متنازع": 1016,
    "▁کالا": 1017,
    "وی": 1018,
    "▁مدرک": 1019,
    "ئ": 1020,
    "▁مفهوم": 1021,
    "▁اینجانب": 1022,
    "▁کبود": 1023,
    "▁عل": 1024,
    "▁مقابل": 1025,
    "▁مستحق": 1026,
    "▁مدلل": 1027,
    "گر": 1028,
    "▁پ": 1029,
    "▁فعال": 1030,
    "▁قض": 1031,
    "یعن": 1032,
    "▁مورث": 1033,
    "▁جرایم": 1034,
    "یر": 1035,
    "▁انقضا": 1036,
    "▁اشت": 1037,
    "▁ابرا": 1038,
    "▁ساختمان": 1039,
    "▁عرض": 1040,
    "▁ضرر": 1041,
    "▁سوء": 1042,
    "▁طول": 1043,
    "▁درآمدها": 1044,
    "نهای": 1045,
    "را": 1046,
    "▁مکشوف": 1047,
    "▁التفات": 1048,
    "▁مواجه": 1049,
    "▁حدود": 1050,
    "▁مأمور": 1051,
    "▁مدرکی": 1052,
    "▁داخل": 1053,
    "▁مقدم": 1054,
    "شان": 1055,
    "▁انتخاب": 1056,
    "▁محمول": 1057,
    "▁جانب": 1058,
    "بنی": 1059,
    "ور": 1060,
    "▁ساخت": 1061,
    "▁یکصد": 1062,
    "▁مأموری": 1063,
    "بط": 1064,
    "▁رونوشت": 1065,
    "▁پرو": 1066,
    "▁نخواهد": 1067,
    "▁تقسی": 1068,
    "ضاع": 1069,
    "▁ایفا": 1070,
    "▁نگه": 1071,
    "▁دائر": 1072,
    "▁داری": 1073,
    "▁باش": 1074,
    "▁شهرت": 1075,
    "طه": 1076,
    "▁سازد": 1077,
    "▁مانده": 1078,
    "اع": 1079,
    "▁پانصد": 1080,
    "▁دستگیر": 1081,
    "▁متوفی": 1082,
    "شمول": 1083,
    "▁دادن": 1084,
    "نقص": 1085,
    "رعای": 1086,
    "▁فرزندان": 1087,
    "ستلز": 1088,
    "▁حارصه": 1089,
    "آلا": 1090,
    "▁اذن": 1091,
    "▁تجدیدنظرخوا": 1092,
    "▁چرا": 1093,
    "▁هفتاد": 1094,
    "▁موقوف": 1095,
    "▁تنها": 1096,
    "▁واحده": 1097,
    "▁مقدمات": 1098,
    "ج": 1099,
    "▁مصون": 1100,
    "▁حاکی": 1101,
    "▁وح": 1102,
    "▁مجلس": 1103,
    "▁مب": 1104,
    "▁مجاز": 1105,
    "▁الحاقی": 1106,
    "▁مض": 1107,
    "▁هنگام": 1108,
    "▁محتو": 1109,
    "▁منتقل": 1110,
    "▁قاعد": 1111,
    "صحاب": 1112,
    "▁بدن": 1113,
    "شروع": 1114,
    "▁گسیخت": 1115,
    "مه": 1116,
    "ارد": 1117,
    "▁زیر": 1118,
    "▁تولد": 1119,
    "▁کارشناسان": 1120,
    "▁مشارالیها": 1121,
    "▁مقتضی": 1122,
    "▁تبر": 1123,
    "▁آورد": 1124,
    "▁پر": 1125,
    "▁جای": 1126,
    "▁ذمه": 1127,
    "دت": 1128,
    "▁پذیرفته": 1129,
    "▁نکاحی": 1130,
    "▁تصادف": 1131,
    "صرفا": 1132,
    "▁رسیده": 1133,
    "▁معوق": 1134,
    "شهر": 1135,
    "▁مدا": 1136,
    "▁مانع": 1137,
    "▁حادثه": 1138,
    "▁اخیرال": 1139,
    "▁کسر": 1140,
    "▁اصلاحات": 1141,
    "خلاف": 1142,
    "▁بود": 1143,
    "▁جز": 1144,
    "▁پای": 1145,
    "▁کارت": 1146,
    "دید": 1147,
    "▁جهیزیه": 1148,
    "▁کمتر": 1149,
    "▁حکومت": 1150,
    "▁سبب": 1151,
    "▁ورشکستگ": 1152,
    "▁دانستن": 1153,
    "تر": 1154,
    "▁جراح": 1155,
    "▁تکمیل": 1156,
    "▁تعلیق": 1157,
    "▁مترمربع": 1158,
    "▁مشتکی": 1159,
    "▁مضاف": 1160,
    "محل": 1161,
    "از": 1162,
    "▁وظ": 1163,
    "جاری": 1164,
    "▁اجا": 1165,
    "▁ارتشا": 1166,
    "▁علامت": 1167,
    "▁حما": 1168,
    "▁متعدد": 1169,
    "▁مطلع": 1170,
    "سته": 1171,
    "▁مخالف": 1172,
    "▁اشعار": 1173,
    "▁هشتاد": 1174,
    "▁زراع": 1175,
    "حت": 1176,
    "▁کفا": 1177,
    "ستند": 1178,
    "حذ": 1179,
    "حصول": 1180,
    "▁واقعی": 1181,
    "▁تودیع": 1182,
    "▁نمایندگ": 1183,
    "▁شخصی": 1184,
    "وط": 1185,
    "▁مطابقت": 1186,
    "▁مالکین": 1187,
    "▁فعلی": 1188,
    "▁خانوادگ": 1189,
    "اساس": 1190,
    "گردیده": 1191,
    "دنی": 1192,
    "▁مربع": 1193,
    "▁لزوم": 1194,
    "▁مثبت": 1195,
    "▁بالا": 1196,
    "لی": 1197,
    "▁خروج": 1198,
    "▁نیرو": 1199,
    "▁افراز": 1200,
    "▁حین": 1201,
    "▁زیان": 1202,
    "▁منتف": 1203,
    "پی": 1204,
    "▁تقلی": 1205,
    "▁تعاون": 1206,
    "یفه": 1207,
    "▁واریز": 1208,
    "▁نظامی": 1209,
    "کپ": 1210,
    "▁تصرفات": 1211,
    "▁عسر": 1212,
    "▁دال": 1213,
    "▁ملی": 1214,
    "▁مغایر": 1215,
    "▁درج": 1216,
    "معلوم": 1217,
    "▁کف": 1218,
    "اری": 1219,
    "امتنا": 1220,
    "▁احت": 1221,
    "یم": 1222,
    "▁واجد": 1223,
    "▁تولید": 1224,
    "▁مجرمانه": 1225,
    "▁اصالت": 1226,
    "▁شرب": 1227,
    "احت": 1228,
    "▁محدوده": 1229,
    "▁صاحب": 1230,
    "▁مرد": 1231,
    "ستان": 1232,
    "▁گذار": 1233,
    "▁ممیز": 1234,
    "▁شعب": 1235,
    "زه": 1236,
    "مجاز": 1237,
    "▁اجبار": 1238,
    "بوط": 1239,
    "▁مطلب": 1240,
    "▁فرار": 1241,
    "▁داوران": 1242,
    "▁آنجا": 1243,
    "▁امانی": 1244,
    "▁کدام": 1245,
    "یک": 1246,
    "▁ازجم": 1247,
    "▁راستا": 1248,
    "▁واخواست": 1249,
    "▁فتو": 1250,
    "▁سکونت": 1251,
    "▁ض": 1252,
    "▁حاکم": 1253,
    "مل": 1254,
    "▁درحالی": 1255,
    "▁ص": 1256,
    "▁احتیا": 1257,
    "▁طلا": 1258,
    "▁اسلام": 1259,
    "▁درجه": 1260,
    "حق": 1261,
    "▁تبع": 1262,
    "▁ری": 1263,
    "▁مقرو": 1264,
    "▁عام": 1265,
    "▁چاقو": 1266,
    "▁اضاف": 1267,
    "▁متعهد": 1268,
    "ساب": 1269,
    "▁فروشند": 1270,
    "لب": 1271,
    "▁سق": 1272,
    "▁اش": 1273,
    "محاکم": 1274,
    "▁مسلمان": 1275,
    "▁تقصیر": 1276,
    "▁هرچند": 1277,
    "▁مستفاد": 1278,
    "▁توجیه": 1279,
    "▁مالیات": 1280,
    "▁شخصیت": 1281,
    "▁ماهی": 1282,
    "▁استشهادیه": 1283,
    "تناسب": 1284,
    "▁مناسب": 1285,
    "▁صدرال": 1286,
    "تعلق": 1287,
    "▁آب": 1288,
    "یع": 1289,
    "▁امعان": 1290,
    "▁فک": 1291,
    "▁نیافته": 1292,
    "ندگان": 1293,
    "▁بیش": 1294,
    "▁گوش": 1295,
    "▁نظ": 1296,
    "▁صدر": 1297,
    "رخ": 1298,
    "▁ممنوع": 1299,
    "▁آثار": 1300,
    "▁گرفت": 1301,
    "▁ماترک": 1302,
    "ول": 1303,
    "نت": 1304,
    "▁آتی": 1305,
    "▁مر": 1306,
    "▁الی": 1307,
    "▁منتخب": 1308,
    "▁پارکینگ": 1309,
    "▁برداشت": 1310,
    "با": 1311,
    "▁اولیای": 1312,
    "▁ضم": 1313,
    "فیه": 1314,
    "براین": 1315,
    "▁قم": 1316,
    "▁تعرض": 1317,
    "▁جاری": 1318,
    "▁سرق": 1319,
    "▁حدو": 1320,
    "▁تبرع": 1321,
    "انی": 1322,
    "▁قدر": 1323,
    "▁لو": 1324,
    "▁عرف": 1325,
    "▁طلب": 1326,
    "▁رسید": 1327,
    "داند": 1328,
    "▁وسایل": 1329,
    "▁اقتصاد": 1330,
    "▁بیشتر": 1331,
    "▁مقدار": 1332,
    "▁خلل": 1333,
    "جمع": 1334,
    "ح": 1335,
    "▁اقساط": 1336,
    "▁آخر": 1337,
    "▁اخلال": 1338,
    "▁مجوز": 1339,
    "نه": 1340,
    "ام": 1341,
    "▁حرج": 1342,
    "▁آباد": 1343,
    "▁احتمال": 1344,
    "▁باز": 1345,
    "وقف": 1346,
    "ختم": 1347,
    "▁عمو": 1348,
    "داد": 1349,
    "▁مستقر": 1350,
    "▁منقول": 1351,
    "▁بهداشت": 1352,
    "▁دم": 1353,
    "▁پیامک": 1354,
    "ئیس": 1355,
    "▁میلی": 1356,
    "▁قرارگرفت": 1357,
    "علق": 1358,
    "▁نقل": 1359,
    "▁جدا": 1360,
    "▁زمانی": 1361,
    "▁خط": 1362,
    "▁غیرعمد": 1363,
    "▁اعم": 1364,
    "ذل": 1365,
    "▁نا": 1366,
    "▁محال": 1367,
    "▁صیغه": 1368,
    "▁مجتمع": 1369,
    "▁سلاح": 1370,
    "▁عود": 1371,
    "▁دختر": 1372,
    "▁گفته": 1373,
    "▁عم": 1374,
    "جز": 1375,
    "وم": 1376,
    "▁رجوع": 1377,
    "▁وعده": 1378,
    "قابل": 1379,
    "▁سو": 1380,
    "بق": 1381,
    "▁احد": 1382,
    "مین": 1383,
    "▁وزارت": 1384,
    "▁اختیارات": 1385,
    "نده": 1386,
    "فظ": 1387,
    "▁نصف": 1388,
    "▁فرج": 1389,
    "▁محروم": 1390,
    "▁مرت": 1391,
    "▁مقر": 1392,
    "کشی": 1393,
    "▁تاکنو": 1394,
    "▁اذ": 1395,
    "▁تقاضا": 1396,
    "▁برقرار": 1397,
    "▁مح": 1398,
    "▁اجمال": 1399,
    "▁ورث": 1400,
    "▁ضمانت": 1401,
    "▁پیدا": 1402,
    "▁ظهر": 1403,
    "▁نبودن": 1404,
    "▁أخ": 1405,
    "▁تش": 1406,
    "▁مخالفت": 1407,
    "رج": 1408,
    "▁موتور": 1409,
    "▁التزام": 1410,
    "▁مازاد": 1411,
    "▁قائم": 1412,
    "ئی": 1413,
    "▁درگیر": 1414,
    "ارت": 1415,
    "▁شور": 1416,
    "▁کنند": 1417,
    "باره": 1418,
    "▁عنصر": 1419,
    "نکر": 1420,
    "▁خالی": 1421,
    "▁مثل": 1422,
    "▁شب": 1423,
    "▁بد": 1424,
    "▁لی": 1425,
    "تماع": 1426,
    "▁متصرف": 1427,
    "اشعار": 1428,
    "▁عامل": 1429,
    "بران": 1430,
    "ارات": 1431,
    "هی": 1432,
    "▁مصدوم": 1433,
    "▁زناشو": 1434,
    "▁تاجر": 1435,
    "▁فق": 1436,
    "▁ساع": 1437,
    "▁فرد": 1438,
    "صلح": 1439,
    "▁خیر": 1440,
    "ران": 1441,
    "اید": 1442,
    "▁عن": 1443,
    "▁وراث": 1444,
    "فل": 1445,
    "خواندگان": 1446,
    "▁لوازم": 1447,
    "▁زندان": 1448,
    "▁رفتار": 1449,
    "▁نق": 1450,
    "▁ایرانی": 1451,
    "▁قول": 1452,
    "▁غ": 1453,
    "▁گر": 1454,
    "▁نود": 1455,
    "▁جعلی": 1456,
    "▁نشان": 1457,
    "▁دفا": 1458,
    "▁تمبر": 1459,
    "▁سوابق": 1460,
    "▁معدوم": 1461,
    "▁کارهای": 1462,
    "حتی": 1463,
    "▁کسی": 1464,
    "مر": 1465,
    "▁تابع": 1466,
    "▁نحوی": 1467,
    "▁قرارهای": 1468,
    "▁نشر": 1469,
    "▁استدعا": 1470,
    "▁غیرم": 1471,
    "▁قر": 1472,
    "▁بهار": 1473,
    "▁معنو": 1474,
    "▁ایضا": 1475,
    "▁...": 1476,
    "▁باطل": 1477,
    "نتیج": 1478,
    "▁درآمد": 1479,
    "▁شاهد": 1480,
    "▁شروط": 1481,
    "وند": 1482,
    "گیر": 1483,
    "▁جلس": 1484,
    "▁پانزده": 1485,
    "▁جرائم": 1486,
    "▁حاکمیت": 1487,
    "▁فروخته": 1488,
    "ضمیم": 1489,
    "▁کن": 1490,
    "▁باغ": 1491,
    "ص": 1492,
    "شند": 1493,
    "عث": 1494,
    "▁مجددا": 1495,
    "▁خودش": 1496,
    "داشت": 1497,
    "▁سجل": 1498,
    "▁سک": 1499,
    "▁فاکتور": 1500,
    "▁مختوم": 1501,
    "▁تصدی": 1502,
    "▁مصداق": 1503,
    "غم": 1504,
    "▁محضر": 1505,
    "▁فصل": 1506,
    "موجه": 1507,
    "▁تضامن": 1508,
    "▁بدهی": 1509,
    "اد": 1510,
    "▁تر": 1511,
    "▁تکرار": 1512,
    "▁آموزش": 1513,
    "▁انبار": 1514,
    "▁الزحم": 1515,
    "کنون": 1516,
    "▁ذات": 1517,
    "▁کلان": 1518,
    "▁آرا": 1519,
    "قرار": 1520,
    "▁تقابل": 1521,
    "نجر": 1522,
    "▁اختلافات": 1523,
    "▁تب": 1524,
    "▁منج": 1525,
    "▁مهر": 1526,
    "▁بعض": 1527,
    "مزد": 1528,
    "مت": 1529,
    "▁گرم": 1530,
    "▁مسلح": 1531,
    "▁محول": 1532,
    "▁کیف": 1533,
    "▁کارمند": 1534,
    "▁ان": 1535,
    "▁ممنوعیت": 1536,
    "▁انگشت": 1537,
    "▁حدی": 1538,
    "▁آر": 1539,
    "▁ازاین": 1540,
    "ارزه": 1541,
    "▁وراثت": 1542,
    "ابع": 1543,
    "▁گذشته": 1544,
    "صت": 1545,
    "▁انف": 1546,
    "وائی": 1547,
    "▁بزهکاریش": 1548,
    "▁واس": 1549,
    "▁خم": 1550,
    "سوی": 1551,
    "▁عوارض": 1552,
    "دم": 1553,
    "▁خدمات": 1554,
    "بان": 1555,
    "سترد": 1556,
    "▁مهم": 1557,
    "اعت": 1558,
    "تری": 1559,
    "▁آرای": 1560,
    "ایی": 1561,
    "▁مزای": 1562,
    "امل": 1563,
    "تورم": 1564,
    "ظ": 1565,
    "▁بتوان": 1566,
    "رات": 1567,
    "ملاک": 1568,
    "ما": 1569,
    "▁کارگر": 1570,
    "قیم": 1571,
    "▁ادا": 1572,
    "▁تص": 1573,
    "▁پول": 1574,
    "▁آزار": 1575,
    "▁قبیل": 1576,
    "▁نقلی": 1577,
    "▁ساق": 1578,
    "▁روستای": 1579,
    "▁منضم": 1580,
    "تین": 1581,
    "دگان": 1582,
    "▁الب": 1583,
    "▁مش": 1584,
    "قاضی": 1585,
    "بریز": 1586,
    "جر": 1587,
    "▁ترافع": 1588,
    "▁مترتب": 1589,
    "▁جهاد": 1590,
    "▁اعلامی": 1591,
    "▁ملز": 1592,
    "کار": 1593,
    "شهود": 1594,
    "▁امضای": 1595,
    "دشت": 1596,
    "▁امضا": 1597,
    "حال": 1598,
    "▁ی": 1599,
    "▁مأخوذ": 1600,
    "▁پلیس": 1601,
    "▁ضرورت": 1602,
    "باش": 1603,
    "▁موتورسی": 1604,
    "▁الاجرا": 1605,
    "▁زنا": 1606,
    "▁ابتدا": 1607,
    "▁آگاه": 1608,
    "▁متعارف": 1609,
    "لیه": 1610,
    "▁کالای": 1611,
    "▁ظاهر": 1612,
    "▁موکلین": 1613,
    "▁شناسا": 1614,
    "▁هست": 1615,
    "▁سود": 1616,
    "▁موظف": 1617,
    "▁صنعت": 1618,
    "▁ارتش": 1619,
    "▁متقابل": 1620,
    "دوی": 1621,
    "▁پی": 1622,
    "▁انعقاد": 1623,
    "▁سا": 1624,
    "▁درمان": 1625,
    "▁نز": 1626,
    "▁بنابه": 1627,
    "هل": 1628,
    "▁کر": 1629,
    "اب": 1630,
    "▁صورتی": 1631,
    "▁جن": 1632,
    "اس": 1633,
    "▁تخ": 1634,
    "▁شاخص": 1635,
    "▁برخوردار": 1636,
    "▁الطرفین": 1637,
    "▁متداعی": 1638,
    "▁بردن": 1639,
    "▁مرضی": 1640,
    "▁ورا": 1641,
    "وز": 1642,
    "ملاحظ": 1643,
    "▁خواست": 1644,
    "▁درصورت": 1645,
    "▁مقو": 1646,
    "▁صور": 1647,
    "▁ز": 1648,
    "▁وقف": 1649,
    "▁اتفاق": 1650,
    "▁الیه": 1651,
    "▁نظم": 1652,
    "▁مقتول": 1653,
    "▁سرپرست": 1654,
    "▁تفویض": 1655,
    "▁سررسید": 1656,
    "جمل": 1657,
    "▁مکرر": 1658,
    "▁منعقد": 1659,
    "▁تردید": 1660,
    "▁قلم": 1661,
    "▁مدیون": 1662,
    "▁سفید": 1663,
    "▁ته": 1664,
    "سی": 1665,
    "▁خو": 1666,
    "▁معاملات": 1667,
    "تعدد": 1668,
    "صرف": 1669,
    "▁الحاق": 1670,
    "▁جا": 1671,
    "▁بار": 1672,
    "▁تس": 1673,
    "بر": 1674,
    "▁والدین": 1675,
    "▁مدیرعامل": 1676,
    "▁پاک": 1677,
    "▁غرب": 1678,
    "حه": 1679,
    "▁شرق": 1680,
    "▁بحث": 1681,
    "▁مطالع": 1682,
    "▁امام": 1683,
    "▁معاین": 1684,
    "رم": 1685,
    "مجموع": 1686,
    "ارث": 1687,
    "▁اقتضا": 1688,
    "▁تأ": 1689,
    "▁تکالیف": 1690,
    "▁متشکل": 1691,
    "▁تضمین": 1692,
    "▁ارای": 1693,
    "▁ستاد": 1694,
    "▁احصا": 1695,
    "▁تصدیر": 1696,
    "▁کتب": 1697,
    "عان": 1698,
    "▁مقید": 1699,
    "ائم": 1700,
    "▁آورده": 1701,
    "▁پیرا": 1702,
    "▁تعدی": 1703,
    "▁ازآنجا": 1704,
    "▁محا": 1705,
    "▁فقدا": 1706,
    "ملک": 1707,
    "▁یقین": 1708,
    "▁مرجوع": 1709,
    "▁بهره": 1710,
    "▁خلاص": 1711,
    "▁فریب": 1712,
    "▁متأ": 1713,
    "نوز": 1714,
    "▁مستقیم": 1715,
    "▁استخوان": 1716,
    "▁اط": 1717,
    "▁تجری": 1718,
    "▁بخشی": 1719,
    "باط": 1720,
    "ایح": 1721,
    "▁دسترس": 1722,
    "طف": 1723,
    "▁قا": 1724,
    "آقای": 1725,
    "▁مشتری": 1726,
    "▁چهارصد": 1727,
    "▁آگ": 1728,
    "▁فردی": 1729,
    "▁ندا": 1730,
    "▁سوءنیت": 1731,
    "یش": 1732,
    "▁عقی": 1733,
    "وثی": 1734,
    "▁شناخته": 1735,
    "▁ضروری": 1736,
    "▁انتشار": 1737,
    "امه": 1738,
    "▁آنجایی": 1739,
    "▁مفقود": 1740,
    "▁حقیق": 1741,
    "ازی": 1742,
    "▁عرفی": 1743,
    "ثابت": 1744,
    "▁مطالبات": 1745,
    "جهیز": 1746,
    "▁حادث": 1747,
    "▁اختصاص": 1748,
    "▁دانشگاه": 1749,
    "▁اقلام": 1750,
    "▁غیرمنقول": 1751,
    "▁تعارض": 1752,
    "▁انسان": 1753,
    "▁مشاهد": 1754,
    "▁دبیر": 1755,
    "▁متفاوت": 1756,
    "▁هزین": 1757,
    "▁شوند": 1758,
    "▁دما": 1759,
    "صاص": 1760,
    "▁بیمار": 1761,
    "نمی": 1762,
    "▁اطلاعات": 1763,
    "▁قفل": 1764,
    "▁دقیق": 1765,
    "▁شهری": 1766,
    "▁نشد": 1767,
    "▁شدید": 1768,
    "▁فن": 1769,
    "▁رشت": 1770,
    "وگیر": 1771,
    "▁تأثیر": 1772,
    "▁ماشین": 1773,
    "▁دوازده": 1774,
    "▁یازده": 1775,
    "دون": 1776,
    "▁مفید": 1777,
    "▁تع": 1778,
    "▁لیتر": 1779,
    "▁آسی": 1780,
    "▁نرسیده": 1781,
    "▁گناه": 1782,
    "صاف": 1783,
    "▁اسا": 1784,
    "▁روان": 1785,
    "▁تح": 1786,
    "▁مسئول": 1787,
    "▁لا": 1788,
    "رضی": 1789,
    "▁تن": 1790,
    "▁عکس": 1791,
    "یان": 1792,
    "امی": 1793,
    "▁کارفرما": 1794,
    "▁اصفهان": 1795,
    "▁قلع": 1796,
    "▁وث": 1797,
    "▁موج": 1798,
    "▁توأم": 1799,
    "▁کرمان": 1800,
    "▁حم": 1801,
    "▁بلام": 1802,
    "▁گاز": 1803,
    "لیک": 1804,
    "▁بازو": 1805,
    "▁افزا": 1806,
    "عنه": 1807,
    "سال": 1808,
    "▁مم": 1809,
    "▁گردن": 1810,
    "▁نمای": 1811,
    "▁اثاث": 1812,
    "▁سرانجام": 1813,
    "▁تجاوز": 1814,
    "▁مطلق": 1815,
    "ویر": 1816,
    "اصل": 1817,
    "▁تصا": 1818,
    "▁اعیان": 1819,
    "▁هویت": 1820,
    "▁شرکا": 1821,
    "▁فرزندش": 1822,
    "▁دلا": 1823,
    "▁اسل": 1824,
    "وصف": 1825,
    "▁مهندسی": 1826,
    "ائب": 1827,
    "▁فل": 1828,
    "▁مغایرت": 1829,
    "قفل": 1830,
    "▁مجر": 1831,
    "واز": 1832,
    "▁نامبر": 1833,
    "▁آور": 1834,
    "▁رفته": 1835,
    "شه": 1836,
    "▁مق": 1837,
    "وگند": 1838,
    "▁نفوذ": 1839,
    "▁دکتر": 1840,
    "▁بازگشت": 1841,
    "▁امری": 1842,
    "▁اعتراف": 1843,
    "▁شریک": 1844,
    "باقی": 1845,
    "▁نوشته": 1846,
    "▁مبنا": 1847,
    "▁مشارالیهم": 1848,
    "دان": 1849,
    "▁تعمیر": 1850,
    "▁فقهی": 1851,
    "▁نو": 1852,
    "▁نسخه": 1853,
    "▁دینا": 1854,
    "حقی": 1855,
    "▁نگر": 1856,
    "تفاوت": 1857,
    "▁فساد": 1858,
    "▁سیزده": 1859,
    "▁معتبر": 1860,
    "▁اعتیاد": 1861,
    "▁فیلم": 1862,
    "▁تفریط": 1863,
    "▁چشم": 1864,
    "کر": 1865,
    "▁واخواند": 1866,
    "▁قهری": 1867,
    "فال": 1868,
    "ویض": 1869,
    "جات": 1870,
    "وث": 1871,
    "یدگی": 1872,
    "جاز": 1873,
    "کاف": 1874,
    "کدام": 1875,
    "گذار": 1876,
    "ادی": 1877,
    "▁جوان": 1878,
    "▁شمال": 1879,
    "روز": 1880,
    "▁رود": 1881,
    "▁خیار": 1882,
    "وجب": 1883,
    "دو": 1884,
    "قل": 1885,
    "مانده": 1886,
    "قدس": 1887,
    "▁پدرش": 1888,
    "▁منط": 1889,
    "یی": 1890,
    "▁قرا": 1891,
    "ض": 1892,
    "▁اعت": 1893,
    "▁احضار": 1894,
    "▁اوقاف": 1895,
    "▁کودک": 1896,
    "▁قانع": 1897,
    "▁طبیع": 1898,
    "▁بازرس": 1899,
    "لا": 1900,
    "شغ": 1901,
    "مون": 1902,
    "▁مابه": 1903,
    "▁صلاح": 1904,
    "▁گرد": 1905,
    "▁ملکی": 1906,
    "کل": 1907,
    "دای": 1908,
    "▁نسب": 1909,
    "لک": 1910,
    "▁نیت": 1911,
    "مهور": 1912,
    "الب": 1913,
    "زی": 1914,
    "▁اعطا": 1915,
    "▁اجناس": 1916,
    "▁حفاظت": 1917,
    "▁عناوین": 1918,
    "▁بزرگ": 1919,
    "▁مرور": 1920,
    "▁نویس": 1921,
    "▁مشکلات": 1922,
    "▁متقن": 1923,
    "▁تحریر": 1924,
    "▁گزارشات": 1925,
    "▁پشت": 1926,
    "▁حصر": 1927,
    "▁اعطای": 1928,
    "▁حقیقت": 1929,
    "کرد": 1930,
    "غ": 1931,
    "لح": 1932,
    "▁تذکر": 1933,
    "▁سیاه": 1934,
    "▁شمار": 1935,
    "دگی": 1936,
    "مال": 1937,
    "▁مهما": 1938,
    "▁کما": 1939,
    "کند": 1940,
    "جرح": 1941,
    "▁تصویب": 1942,
    "طبی": 1943,
    "عر": 1944,
    "سه": 1945,
    "وج": 1946,
    "درس": 1947,
    "▁دخالت": 1948,
    "▁تفسیر": 1949,
    "▁دلائل": 1950,
    "▁برگشت": 1951,
    "▁تصحیح": 1952,
    "▁ارشاد": 1953,
    "▁نصب": 1954,
    "نموده": 1955,
    "یجان": 1956,
    "▁جلو": 1957,
    "صب": 1958,
    "▁آی": 1959,
    "قوط": 1960,
    "▁موقع": 1961,
    "▁عابر": 1962,
    "▁پار": 1963,
    "▁پلم": 1964,
    "حسن": 1965,
    "طرفیت": 1966,
    "▁حدا": 1967,
    "أ": 1968,
    "چار": 1969,
    "▁دهند": 1970,
    "اره": 1971,
    "▁تیر": 1972,
    "▁برادر": 1973,
    "▁ول": 1974,
    "قف": 1975,
    "ساعد": 1976,
    "▁آزمایش": 1977,
    "▁تسهیل": 1978,
    "▁بق": 1979,
    "▁تمرد": 1980,
    "عرفی": 1981,
    "▁حامل": 1982,
    "خواهد": 1983,
    "▁مستدل": 1984,
    "▁فرستاده": 1985,
    "▁خودروی": 1986,
    "▁استیفا": 1987,
    "▁مسا": 1988,
    "شاه": 1989,
    "صر": 1990,
    "حصل": 1991,
    "ائی": 1992,
    "آن": 1993,
    "نشأ": 1994,
    "عمل": 1995,
    "کرده": 1996,
    "▁بنده": 1997,
    "▁نداشتن": 1998,
    "دار": 1999,
    "▁بال": 2000,
    "موجب": 2001,
    "واس": 2002,
    "ستگی": 2003,
    "خراج": 2004,
    "چنین": 2005,
    "▁اسقاط": 2006,
    "▁هجده": 2007,
    "▁جنوب": 2008,
    "▁وصیت": 2009,
    "▁مبالغ": 2010,
    "▁شهریار": 2011,
    "▁بنیاد": 2012,
    "▁نپذیرفته": 2013,
    "▁برق": 2014,
    "ازه": 2015,
    "▁ارا": 2016,
    "وارد": 2017,
    "▁وس": 2018,
    "گون": 2019,
    "▁مج": 2020,
    "▁ایرادات": 2021,
    "▁توزی": 2022,
    "▁دادرس": 2023,
    "▁آماد": 2024,
    "دادگاه": 2025,
    "▁بیم": 2026,
    "▁شهرس": 2027,
    "▁مکان": 2028,
    "جه": 2029,
    "▁لباس": 2030,
    "▁پیمانکار": 2031,
    "▁مفروز": 2032,
    "مع": 2033,
    "صال": 2034,
    "کی": 2035,
    "▁پیگر": 2036,
    "▁بدی": 2037,
    "رئ": 2038,
    "▁العا": 2039,
    "▁متک": 2040,
    "▁عرو": 2041,
    "▁علیهم": 2042,
    "قت": 2043,
    "▁غب": 2044,
    "▁تما": 2045,
    "باب": 2046,
    "▁ضابط": 2047,
    "عد": 2048,
    "▁دارا": 2049,
    "خاطر": 2050,
    "الوکال": 2051,
    "گ": 2052,
    "وعد": 2053,
    "ومی": 2054,
    "▁تعریف": 2055,
    "▁آذر": 2056,
    "▁مناط": 2057,
    "▁مشاغل": 2058,
    "▁مجنی": 2059,
    "▁معارض": 2060,
    "▁پسند": 2061,
    "▁شرعا": 2062,
    "▁عد": 2063,
    "بیل": 2064,
    "▁سپرده": 2065,
    "▁صنف": 2066,
    "قاد": 2067,
    "قدی": 2068,
    "دهد": 2069,
    "خر": 2070,
    "▁مفت": 2071,
    "پسندی": 2072,
    "▁ناف": 2073,
    "تمسک": 2074,
    "وا": 2075,
    "▁قراردادها": 2076,
    "ضو": 2077,
    "▁موکلش": 2078,
    "▁مبت": 2079,
    "▁اکاذیب": 2080,
    "▁ظهرنویس": 2081,
    "▁منقصت": 2082,
    "▁معروف": 2083,
    "▁فضای": 2084,
    "وجود": 2085,
    "فیل": 2086,
    "▁مجرم": 2087,
    "▁آمد": 2088,
    "▁تج": 2089,
    "▁گ": 2090,
    "▁مبین": 2091,
    "استان": 2092,
    "▁افتاده": 2093,
    "▁ربای": 2094,
    "وه": 2095,
    "ناقص": 2096,
    "▁مبا": 2097,
    "مند": 2098,
    "جلسه": 2099,
    "▁خصو": 2100,
    "چک": 2101,
    "▁نکرد": 2102,
    "▁کارک": 2103,
    "▁مترا": 2104,
    "ودیع": 2105,
    "▁همکار": 2106,
    "اکثر": 2107,
    "تلاش": 2108,
    "▁بدان": 2109,
    "ساخ": 2110,
    "▁گمرک": 2111,
    "▁وجدان": 2112,
    "▁بدهکار": 2113,
    "▁بسیار": 2114,
    "▁چگون": 2115,
    "▁بیمارستان": 2116,
    "▁صغیر": 2117,
    "رنج": 2118,
    "▁مل": 2119,
    "▁بازار": 2120,
    "▁خلف": 2121,
    "▁آیند": 2122,
    "کید": 2123,
    "جن": 2124,
    "سواد": 2125,
    "▁بقا": 2126,
    "▁اعلان": 2127,
    "▁نسخ": 2128,
    "▁گفت": 2129,
    "بودن": 2130,
    "من": 2131,
    "▁تخلفات": 2132,
    "گیرد": 2133,
    "▁بعدا": 2134,
    "عنوان": 2135,
    "بار": 2136,
    "▁مشا": 2137,
    "رود": 2138,
    "بیب": 2139,
    "قانونی": 2140,
    "▁ابتدای": 2141,
    "▁معاف": 2142,
    "▁معن": 2143,
    "▁مادرش": 2144,
    "▁اد": 2145,
    "تاریخ": 2146,
    "▁کری": 2147,
    "قم": 2148,
    "شکستگ": 2149,
    "▁قبض": 2150,
    "▁شمیران": 2151,
    "▁اقناع": 2152,
    "▁امنیت": 2153,
    "▁محیط": 2154,
    "▁عندال": 2155,
    "▁پیگیر": 2156,
    "وح": 2157,
    "▁ولایت": 2158,
    "▁هفتصد": 2159,
    "▁اولیاء": 2160,
    "▁گذاشته": 2161,
    "احیه": 2162,
    "▁راهنمای": 2163,
    "▁ضابطی": 2164,
    "رز": 2165,
    "▁اعضا": 2166,
    "درت": 2167,
    "▁سل": 2168,
    "بد": 2169,
    "نکه": 2170,
    "▁پل": 2171,
    "▁انشا": 2172,
    "▁حف": 2173,
    "▁الن": 2174,
    "▁صورتجلس": 2175,
    "اقل": 2176,
    "▁حالت": 2177,
    "نان": 2178,
    "▁خواهر": 2179,
    "نظرخواهی": 2180,
    "▁نفس": 2181,
    "▁عنا": 2182,
    "▁البرائ": 2183,
    "واری": 2184,
    "▁سوار": 2185,
    "تقلب": 2186,
    "وهش": 2187,
    "▁درب": 2188,
    "▁چاپ": 2189,
    "▁اطراف": 2190,
    "▁مجهول": 2191,
    "▁انحصار": 2192,
    "▁پورسانت": 2193,
    "▁سوخت": 2194,
    "▁لواسان": 2195,
    "▁تملیک": 2196,
    "▁کوچک": 2197,
    "سهم": 2198,
    "▁کیلو": 2199,
    "▁اتحا": 2200,
    "▁مطال": 2201,
    "▁فرمان": 2202,
    "▁مصالح": 2203,
    "▁دفع": 2204,
    "قی": 2205,
    "▁درخت": 2206,
    "▁کنون": 2207,
    "▁خوردن": 2208,
    "▁کارگاه": 2209,
    "▁شناس": 2210,
    "▁مشت": 2211,
    "ارک": 2212,
    "نام": 2213,
    "▁فرهنگی": 2214,
    "تصویب": 2215,
    "▁مردم": 2216,
    "رکن": 2217,
    "انند": 2218,
    "▁ربا": 2219,
    "احل": 2220,
    "▁استم": 2221,
    "▁گیرند": 2222,
    "خانم": 2223,
    "غیر": 2224,
    "▁محض": 2225,
    "▁پیمان": 2226,
    "▁منقوض": 2227,
    "▁سنوات": 2228,
    "▁استحضار": 2229,
    "▁ندامت": 2230,
    "ضعف": 2231,
    "اق": 2232,
    "▁مستثنیات": 2233,
    "تبادل": 2234,
    "▁زانو": 2235,
    "▁وق": 2236,
    "▁روح": 2237,
    "▁تعدیل": 2238,
    "▁مخد": 2239,
    "▁شواهد": 2240,
    "صراف": 2241,
    "▁انتفاع": 2242,
    "▁تمک": 2243,
    "▁بیت": 2244,
    "▁تکذیب": 2245,
    "▁یکم": 2246,
    "ارستان": 2247,
    "▁ربط": 2248,
    "▁پاس": 2249,
    "بین": 2250,
    "لال": 2251,
    "رو": 2252,
    "بقی": 2253,
    "▁نوعی": 2254,
    "نوان": 2255,
    "▁تغییرات": 2256,
    "▁مقص": 2257,
    "رس": 2258,
    "▁میسر": 2259,
    "▁شتر": 2260,
    "▁حیات": 2261,
    "▁فوری": 2262,
    "یمه": 2263,
    "▁نس": 2264,
    "مرار": 2265,
    "اشاره": 2266,
    "▁رفت": 2267,
    "▁شی": 2268,
    "▁متو": 2269,
    "▁امتیاز": 2270,
    "فت": 2271,
    "▁مددکار": 2272,
    "▁مقادیر": 2273,
    "▁گذرنامه": 2274,
    "▁اصرار": 2275,
    "▁مشکل": 2276,
    "رغ": 2277,
    "▁ثبوت": 2278,
    "▁تقوی": 2279,
    "▁ضامن": 2280,
    "▁تف": 2281,
    "ماده": 2282,
    "▁محاکمات": 2283,
    "▁حص": 2284,
    "▁خر": 2285,
    "▁متوا": 2286,
    "▁تصادفات": 2287,
    "▁پارک": 2288,
    "مای": 2289,
    "پذیر": 2290,
    "▁کالاها": 2291,
    "▁مچ": 2292,
    "▁تم": 2293,
    "وان": 2294,
    "▁موقعی": 2295,
    "عنایت": 2296,
    "▁اراد": 2297,
    "دا": 2298,
    "جاب": 2299,
    "▁نشو": 2300,
    "▁نقش": 2301,
    "حکم": 2302,
    "▁صدق": 2303,
    "▁توس": 2304,
    "▁مشروع": 2305,
    "▁الا": 2306,
    "▁گل": 2307,
    "▁اختراع": 2308,
    "▁مخابرات": 2309,
    "▁تعطیل": 2310,
    "▁ذینفع": 2311,
    "اله": 2312,
    "▁سارق": 2313,
    "▁مشورت": 2314,
    "▁قمار": 2315,
    "▁نگهبان": 2316,
    "▁مخارج": 2317,
    "▁اطلاق": 2318,
    "▁کتاب": 2319,
    "▁محمل": 2320,
    "▁آل": 2321,
    "▁آمار": 2322,
    "▁استن": 2323,
    "▁استثنا": 2324,
    "سور": 2325,
    "▁بناب": 2326,
    "▁بناء": 2327,
    "تمام": 2328,
    "ادر": 2329,
    "▁زدن": 2330,
    "▁بهای": 2331,
    "یون": 2332,
    "▁منافات": 2333,
    "▁انش": 2334,
    "▁خاصی": 2335,
    "▁کمیت": 2336,
    "▁معنای": 2337,
    "نضما": 2338,
    "▁بطرفیت": 2339,
    "▁حج": 2340,
    "▁انح": 2341,
    "قطعی": 2342,
    "▁ستو": 2343,
    "▁آیا": 2344,
    "شروط": 2345,
    "ضاء": 2346,
    "▁مسک": 2347,
    "وض": 2348,
    "▁نظرخواهی": 2349,
    "حقاق": 2350,
    "مکان": 2351,
    "ود": 2352,
    "▁کارآموز": 2353,
    "▁اتوبوس": 2354,
    "▁تدلیس": 2355,
    "▁جایگزین": 2356,
    "▁حرکت": 2357,
    "▁مثبوت": 2358,
    "▁شیراز": 2359,
    "▁متصور": 2360,
    "▁مقدور": 2361,
    "▁مشروح": 2362,
    "▁رقب": 2363,
    "▁جنسیت": 2364,
    "▁فیمابین": 2365,
    "▁روشن": 2366,
    "▁اصال": 2367,
    "▁همدیگر": 2368,
    "زو": 2369,
    "▁شاه": 2370,
    "▁اخلاق": 2371,
    "ته": 2372,
    "▁خدم": 2373,
    "▁زیاد": 2374,
    "▁پارس": 2375,
    "جمه": 2376,
    "▁فاکتورهای": 2377,
    "▁مادامی": 2378,
    "اثر": 2379,
    "کننده": 2380,
    "دام": 2381,
    "سیون": 2382,
    "▁چاه": 2383,
    "▁توق": 2384,
    "گرفته": 2385,
    "▁طلاها": 2386,
    "▁آشنای": 2387,
    "تراضی": 2388,
    "▁اکثر": 2389,
    "گرم": 2390,
    "▁پیشین": 2391,
    "▁صن": 2392,
    "▁پا": 2393,
    "هلاک": 2394,
    "▁شئون": 2395,
    "▁مستدعی": 2396,
    "▁افسر": 2397,
    "▁سطح": 2398,
    "▁کذب": 2399,
    "▁دندان": 2400,
    "▁جوابیه": 2401,
    "▁زمره": 2402,
    "▁انتهای": 2403,
    "▁مشهور": 2404,
    "▁سازگار": 2405,
    "▁بنای": 2406,
    "▁ادارات": 2407,
    "▁قدام": 2408,
    "▁کلم": 2409,
    "▁رنگ": 2410,
    "▁شبه": 2411,
    "▁عذر": 2412,
    "▁موروث": 2413,
    "▁سبز": 2414,
    "▁بابل": 2415,
    "▁تخصص": 2416,
    "▁بلو": 2417,
    "مس": 2418,
    "خوانده": 2419,
    "المثل": 2420,
    "صدور": 2421,
    "▁غیاب": 2422,
    "▁نمایی": 2423,
    "▁مرتب": 2424,
    "امانت": 2425,
    "▁حس": 2426,
    "▁آمر": 2427,
    "▁موجودی": 2428,
    "مان": 2429,
    "▁جمعی": 2430,
    "▁عرضه": 2431,
    "▁متهمی": 2432,
    "▁دل": 2433,
    "دف": 2434,
    "▁معاش": 2435,
    "یا": 2436,
    "▁تدا": 2437,
    "صاحب": 2438,
    "▁مکتو": 2439,
    "طور": 2440,
    "▁معا": 2441,
    "▁نواقص": 2442,
    "▁گردنبند": 2443,
    "▁منفعت": 2444,
    "▁مقصود": 2445,
    "▁آسایش": 2446,
    "▁عقود": 2447,
    "▁مضمون": 2448,
    "▁آمیز": 2449,
    "▁تمایل": 2450,
    "▁طلبکار": 2451,
    "▁اشتهار": 2452,
    "▁هفده": 2453,
    "▁غرام": 2454,
    "▁ارزیاب": 2455,
    "رداری": 2456,
    "▁دروغ": 2457,
    "مومی": 2458,
    "▁فشار": 2459,
    "▁مشه": 2460,
    "▁اضرار": 2461,
    "▁بیرون": 2462,
    "ربع": 2463,
    "▁خرج": 2464,
    "▁بکار": 2465,
    "بور": 2466,
    "▁کنار": 2467,
    "رصه": 2468,
    "▁متولی": 2469,
    "▁چیز": 2470,
    "لث": 2471,
    "صحیحا": 2472,
    "▁الفاظ": 2473,
    "شت": 2474,
    "▁ضمان": 2475,
    "▁مفا": 2476,
    "انون": 2477,
    "▁افت": 2478,
    "▁همچنان": 2479,
    "▁جسم": 2480,
    "ساز": 2481,
    "پرداخت": 2482,
    "▁کارها": 2483,
    "▁سپه": 2484,
    "نف": 2485,
    "▁درخو": 2486,
    "▁جدای": 2487,
    "بی": 2488,
    "تش": 2489,
    "▁قیم": 2490,
    "▁عق": 2491,
    "▁ایمن": 2492,
    "▁شیر": 2493,
    "داخل": 2494,
    "▁شان": 2495,
    "صری": 2496,
    "ایع": 2497,
    "▁ناشناس": 2498,
    "▁سردفتر": 2499,
    "▁کا": 2500,
    "▁گو": 2501,
    "▁اشتراک": 2502,
    "▁مفصل": 2503,
    "▁شمسی": 2504,
    "▁جنگل": 2505,
    "▁رقم": 2506,
    "▁قاطع": 2507,
    "▁شا": 2508,
    "▁پسر": 2509,
    "▁معاد": 2510,
    "▁ملت": 2511,
    "ولو": 2512,
    "▁شرع": 2513,
    "▁خورده": 2514,
    "رجعی": 2515,
    "▁کام": 2516,
    "فی": 2517,
    "▁سیم": 2518,
    "▁ضما": 2519,
    "عقد": 2520,
    "▁ازآن": 2521,
    "▁موهو": 2522,
    "▁مخاط": 2523,
    "اعلام": 2524,
    "▁نتوانست": 2525,
    "▁محدود": 2526,
    "▁زده": 2527,
    "خص": 2528,
    "یگان": 2529,
    "عدم": 2530,
    "استناد": 2531,
    "اتب": 2532,
    "▁ث": 2533,
    "▁شه": 2534,
    "أن": 2535,
    "▁حا": 2536,
    "▁پاره": 2537,
    "کلی": 2538,
    "قصر": 2539,
    "صادر": 2540,
    "▁رأس": 2541,
    "▁مباشر": 2542,
    "▁تناسب": 2543,
    "عرفا": 2544,
    "وار": 2545,
    "▁تفخیذ": 2546,
    "▁مطبوعات": 2547,
    "▁جانشین": 2548,
    "▁متداول": 2549,
    "▁زنجان": 2550,
    "▁مستحدثات": 2551,
    "▁پوشش": 2552,
    "▁آنجائی": 2553,
    "▁دنبال": 2554,
    "▁مفادا": 2555,
    "▁نش": 2556,
    "▁قرینه": 2557,
    "▁جام": 2558,
    "▁مباشرت": 2559,
    "▁آهن": 2560,
    "▁ادوا": 2561,
    "نشده": 2562,
    "قض": 2563,
    "▁موثر": 2564,
    "▁کارگران": 2565,
    "▁برآورد": 2566,
    "▁گران": 2567,
    "▁جزئی": 2568,
    "▁ماب": 2569,
    "▁درمورد": 2570,
    "▁مسجل": 2571,
    "▁پرورش": 2572,
    "▁البین": 2573,
    "▁کارکرد": 2574,
    "▁دور": 2575,
    "▁خون": 2576,
    "خواه": 2577,
    "▁نی": 2578,
    "▁ران": 2579,
    "شامی": 2580,
    "صل": 2581,
    "افع": 2582,
    "لات": 2583,
    "▁محصول": 2584,
    "ریز": 2585,
    "▁قیموم": 2586,
    "▁دیده": 2587,
    "▁وکیلش": 2588,
    "سر": 2589,
    "معی": 2590,
    "وع": 2591,
    "▁مأخ": 2592,
    "▁مساع": 2593,
    "مجلس": 2594,
    "▁بانو": 2595,
    "حسب": 2596,
    "▁گویا": 2597,
    "▁نشدن": 2598,
    "▁لاضر": 2599,
    "جا": 2600,
    "واقع": 2601,
    "نج": 2602,
    "▁چهارده": 2603,
    "▁اقا": 2604,
    "▁اطلاعی": 2605,
    "حساب": 2606,
    "▁رها": 2607,
    "راین": 2608,
    "▁انعکاس": 2609,
    "▁پشیمان": 2610,
    "▁شانزده": 2611,
    "▁منحصر": 2612,
    "▁تظلم": 2613,
    "▁تفاوت": 2614,
    "▁تدارک": 2615,
    "▁همزمان": 2616,
    "▁ایقاع": 2617,
    "▁محدودیت": 2618,
    "▁خاتم": 2619,
    "▁نزدیک": 2620,
    "▁بپرداز": 2621,
    "▁برد": 2622,
    "▁گردان": 2623,
    "ارجاع": 2624,
    "عه": 2625,
    "▁نهاد": 2626,
    "▁شکست": 2627,
    "▁بردار": 2628,
    "شم": 2629,
    "استفاده": 2630,
    "▁سعی": 2631,
    "▁کم": 2632,
    "دلیل": 2633,
    "دادنامه": 2634,
    "▁یکجا": 2635,
    "▁خبر": 2636,
    "زد": 2637,
    "▁خودم": 2638,
    "صاب": 2639,
    "لزوم": 2640,
    "عمال": 2641,
    "▁خرا": 2642,
    "قسط": 2643,
    "▁بیکار": 2644,
    "▁حرف": 2645,
    "▁مسته": 2646,
    "واره": 2647,
    "ظاهر": 2648,
    "بند": 2649,
    "ریال": 2650,
    "▁صدا": 2651,
    "▁جزا": 2652,
    "گرد": 2653,
    "▁حیثیت": 2654,
    "▁عوام": 2655,
    "انس": 2656,
    "▁اصلاحیه": 2657,
    "سسات": 2658,
    "▁حرا": 2659,
    "▁نکت": 2660,
    "▁درآمده": 2661,
    "ولت": 2662,
    "▁مزایا": 2663,
    "▁زند": 2664,
    "لاک": 2665,
    "▁نهای": 2666,
    "لاف": 2667,
    "▁کلا": 2668,
    "▁هماهنگ": 2669,
    "▁مسبوق": 2670,
    "▁دوشیز": 2671,
    "▁روغن": 2672,
    "▁ایداع": 2673,
    "▁صبح": 2674,
    "▁مصرح": 2675,
    "▁مراسم": 2676,
    "▁اتاق": 2677,
    "▁تقریب": 2678,
    "▁برگزار": 2679,
    "▁لطم": 2680,
    "صیف": 2681,
    "▁جسد": 2682,
    "▁ننمود": 2683,
    "▁وپنج": 2684,
    "وفق": 2685,
    "▁ملازم": 2686,
    "▁مساعدت": 2687,
    "تأسف": 2688,
    "▁کوچ": 2689,
    "▁یاب": 2690,
    "▁سببیت": 2691,
    "▁نسق": 2692,
    "ترافعی": 2693,
    "▁شو": 2694,
    "▁آمری": 2695,
    "▁غای": 2696,
    "کا": 2697,
    "▁ابو": 2698,
    "▁اص": 2699,
    "کلاهبردار": 2700,
    "دیل": 2701,
    "وئی": 2702,
    "اشد": 2703,
    "سب": 2704,
    "▁مخ": 2705,
    "▁مسمو": 2706,
    "▁فرهنگ": 2707,
    "▁حضر": 2708,
    "لاق": 2709,
    "توصیف": 2710,
    "▁کلید": 2711,
    "▁دارو": 2712,
    "▁شفا": 2713,
    "▁آقا": 2714,
    "▁نظا": 2715,
    "▁جنگ": 2716,
    "ایم": 2717,
    "دن": 2718,
    "الی": 2719,
    "▁گشت": 2720,
    "▁سیست": 2721,
    "عیوب": 2722,
    "▁حوال": 2723,
    "▁مادام": 2724,
    "طری": 2725,
    "ماد": 2726,
    "وب": 2727,
    "▁رساند": 2728,
    "▁تبعی": 2729,
    "▁تتم": 2730,
    "▁نک": 2731,
    "▁وزن": 2732,
    "خیص": 2733,
    "▁مجز": 2734,
    "▁جوش": 2735,
    "▁افغان": 2736,
    "▁بستانکار": 2737,
    "▁محجور": 2738,
    "▁تربیت": 2739,
    "▁یارانه": 2740,
    "سل": 2741,
    "▁ضایع": 2742,
    "▁مجنون": 2743,
    "▁اخف": 2744,
    "▁مستمر": 2745,
    "▁نامعلوم": 2746,
    "▁اسم": 2747,
    "لغی": 2748,
    "▁مستن": 2749,
    "شعبه": 2750,
    "سلسل": 2751,
    "تی": 2752,
    "▁خرم": 2753,
    "▁عا": 2754,
    "دیده": 2755,
    "وظ": 2756,
    "نمود": 2757,
    "▁خزا": 2758,
    "▁نوب": 2759,
    "▁بالاخ": 2760,
    "▁علاق": 2761,
    "▁موسس": 2762,
    "▁منطقی": 2763,
    "▁سطر": 2764,
    "▁قس": 2765,
    "ایش": 2766,
    "ضرر": 2767,
    "▁حو": 2768,
    "▁مختصر": 2769,
    "نحن": 2770,
    "نفع": 2771,
    "جهت": 2772,
    "▁سنگ": 2773,
    "▁ذ": 2774,
    "▁الع": 2775,
    "▁طلای": 2776,
    "▁مخل": 2777,
    "▁کس": 2778,
    "▁دان": 2779,
    "▁ساخته": 2780,
    "▁تلف": 2781,
    "▁تقلب": 2782,
    "چ": 2783,
    "▁ظه": 2784,
    "خصی": 2785,
    "▁نص": 2786,
    "▁خطا": 2787,
    "آ": 2788,
    "اسان": 2789,
    "▁کارخان": 2790,
    "نهایت": 2791,
    "باع": 2792,
    "▁الکترونیک": 2793,
    "▁غاصب": 2794,
    "▁کوتاه": 2795,
    "▁کارگزار": 2796,
    "▁مذهب": 2797,
    "▁ترجیح": 2798,
    "▁ارفاق": 2799,
    "▁حرمت": 2800,
    "▁تلویح": 2801,
    "▁مازند": 2802,
    "▁قرض": 2803,
    "▁سهو": 2804,
    "▁فرمانده": 2805,
    "▁طرق": 2806,
    "▁قصور": 2807,
    "▁مقن": 2808,
    "رسمی": 2809,
    "احوال": 2810,
    "▁فروشگاه": 2811,
    "▁متفق": 2812,
    "یزک": 2813,
    "▁سواد": 2814,
    "اش": 2815,
    "▁الت": 2816,
    "▁فا": 2817,
    "ستی": 2818,
    "▁جان": 2819,
    "▁بالغ": 2820,
    "▁قطعات": 2821,
    "▁میان": 2822,
    "▁سپرد": 2823,
    "▁بالای": 2824,
    "دین": 2825,
    "شنگ": 2826,
    "یعه": 2827,
    "هور": 2828,
    "▁جسته": 2829,
    "بعا": 2830,
    "حیث": 2831,
    "▁یوم": 2832,
    "اک": 2833,
    "▁وکالتنامه": 2834,
    "▁رسانده": 2835,
    "عرض": 2836,
    "▁متعاق": 2837,
    "▁عادل": 2838,
    "▁حدودا": 2839,
    "نگه": 2840,
    "زم": 2841,
    "خ": 2842,
    "▁گوی": 2843,
    "بایست": 2844,
    "▁منش": 2845,
    "یام": 2846,
    "اهش": 2847,
    "▁شهردار": 2848,
    "ماند": 2849,
    "فرض": 2850,
    "ندگی": 2851,
    "گران": 2852,
    "یاط": 2853,
    "توان": 2854,
    "مدنی": 2855,
    "ابق": 2856,
    "▁شرک": 2857,
    "اطه": 2858,
    "اقی": 2859,
    "▁معنا": 2860,
    "رف": 2861,
    "▁فرضی": 2862,
    "انداز": 2863,
    "▁توا": 2864,
    "▁موردادعا": 2865,
    "ثب": 2866,
    "▁خور": 2867,
    "▁ناش": 2868,
    "▁افتاد": 2869,
    "الف": 2870,
    "▁جو": 2871,
    "قریب": 2872,
    "▁افز": 2873,
    "▁طوری": 2874,
    "▁بیشتری": 2875,
    "▁ابهام": 2876,
    "▁قسم": 2877,
    "شاغل": 2878,
    "▁تأسیس": 2879,
    "قاعد": 2880,
    "▁مبح": 2881,
    "▁فاضل": 2882,
    "▁انگیزه": 2883,
    "▁زیرزمین": 2884,
    "▁بناءعلی": 2885,
    "▁کاشف": 2886,
    "▁کبوتر": 2887,
    "▁ورقه": 2888,
    "▁مسجد": 2889,
    "▁چهاردانگ": 2890,
    "▁مدرس": 2891,
    "ابلاغ": 2892,
    "▁فرم": 2893,
    "▁مستاجر": 2894,
    "▁عصب": 2895,
    "▁مسئ": 2896,
    "▁ابتدائ": 2897,
    "▁تأسیسات": 2898,
    "▁وزیر": 2899,
    "▁متیقن": 2900,
    "▁اشک": 2901,
    "▁جوا": 2902,
    "▁جایز": 2903,
    "▁نیابت": 2904,
    "▁نتوان": 2905,
    "عالی": 2906,
    "▁عوض": 2907,
    "▁عصر": 2908,
    "▁دوسال": 2909,
    "▁باخته": 2910,
    "▁پیام": 2911,
    "▁گیلا": 2912,
    "▁استخراج": 2913,
    "▁پیر": 2914,
    "صور": 2915,
    "▁ماند": 2916,
    "نا": 2917,
    "▁انداز": 2918,
    "الوس": 2919,
    "علوم": 2920,
    "▁البی": 2921,
    "▁مخصوص": 2922,
    "▁فار": 2923,
    "صورت": 2924,
    "سط": 2925,
    "▁توانسته": 2926,
    "▁بلاع": 2927,
    "▁پرد": 2928,
    "پرداز": 2929,
    "▁ننمودن": 2930,
    "علیه": 2931,
    "▁خطر": 2932,
    "یده": 2933,
    "دانگ": 2934,
    "ایل": 2935,
    "ابین": 2936,
    "زوی": 2937,
    "▁واخوا": 2938,
    "▁ورز": 2939,
    "▁مفقودی": 2940,
    "▁مطل": 2941,
    "▁گیر": 2942,
    "عسر": 2943,
    "زیان": 2944,
    "▁محو": 2945,
    "▁توضیحا": 2946,
    "اسط": 2947,
    "طلاق": 2948,
    "▁ادعایش": 2949,
    "▁رفتن": 2950,
    "▁تحری": 2951,
    "اهو": 2952,
    "▁لغ": 2953,
    "▁منو": 2954,
    "▁انشای": 2955,
    "مک": 2956,
    "▁تکذیبی": 2957,
    "▁شهرک": 2958,
    "▁مضی": 2959,
    "صا": 2960,
    "▁مقی": 2961,
    "▁پوشا": 2962,
    "عاد": 2963,
    "▁طبع": 2964,
    "نیز": 2965,
    "▁نبای": 2966,
    "▁استخدام": 2967,
    "▁هکتار": 2968,
    "کارت": 2969,
    "▁شراکت": 2970,
    "▁فاحش": 2971,
    "▁آغاز": 2972,
    "▁مذاکر": 2973,
    "▁بازجو": 2974,
    "▁مجروح": 2975,
    "▁اکراه": 2976,
    "▁سلامت": 2977,
    "▁فامیل": 2978,
    "▁بستگان": 2979,
    "▁ثانوی": 2980,
    "▁عراق": 2981,
    "▁قاتل": 2982,
    "▁کتف": 2983,
    "▁متصدی": 2984,
    "▁لفظ": 2985,
    "ناسب": 2986,
    "▁شیرین": 2987,
    "▁معوض": 2988,
    "ئن": 2989,
    "▁دامدار": 2990,
    "▁مبار": 2991,
    "▁گروه": 2992,
    "▁رهبر": 2993,
    "▁ورزش": 2994,
    "▁عمران": 2995,
    "حرج": 2996,
    "▁کمال": 2997,
    "ینه": 2998,
    "▁مکتوم": 2999,
    "▁محر": 3000,
    "▁بطر": 3001,
    "واهی": 3002,
    "رام": 3003,
    "ائید": 3004,
    "▁خاک": 3005,
    "▁برج": 3006,
    "▁کمر": 3007,
    "تساوی": 3008,
    "جار": 3009,
    "▁نم": 3010,
    "▁واحدها": 3011,
    "▁مشار": 3012,
    "▁بستر": 3013,
    "بیان": 3014,
    "ولیت": 3015,
    "▁زور": 3016,
    "ضی": 3017,
    "▁سمن": 3018,
    "▁توصیف": 3019,
    "▁اولاد": 3020,
    "▁ابر": 3021,
    "▁قائ": 3022,
    "سد": 3023,
    "▁عدو": 3024,
    "▁بو": 3025,
    "▁دام": 3026,
    "▁مراجعت": 3027,
    "▁خوا": 3028,
    "▁مبد": 3029,
    "دیون": 3030,
    "بن": 3031,
    "▁متض": 3032,
    "▁رسم": 3033,
    "▁رضو": 3034,
    "زش": 3035,
    "▁درآمدن": 3036,
    "▁گردش": 3037,
    "تجدیدنظرخواه": 3038,
    "▁تراک": 3039,
    "▁صاد": 3040,
    "▁آرایش": 3041,
    "فه": 3042,
    "▁الص": 3043,
    "▁الغ": 3044,
    "دول": 3045,
    "▁زر": 3046,
    "▁وابست": 3047,
    "▁پدرم": 3048,
    "▁نبود": 3049,
    "ادرش": 3050,
    "▁فقها": 3051,
    "قبال": 3052,
    "▁استثنای": 3053,
    "وت": 3054,
    "▁ورشکست": 3055,
    "ریم": 3056,
    "اج": 3057,
    "▁زنان": 3058,
    "فقه": 3059,
    "▁کش": 3060,
    "▁حت": 3061,
    "▁عقل": 3062,
    "اصول": 3063,
    "▁پاسا": 3064,
    "▁آموز": 3065,
    "▁خان": 3066,
    "گرفت": 3067,
    "خفیف": 3068,
    "▁جنس": 3069,
    "▁مخفف": 3070,
    "▁عشایر": 3071,
    "▁مراکز": 3072,
    "▁بازرگان": 3073,
    "▁مسدود": 3074,
    "▁فضول": 3075,
    "▁پدربزرگ": 3076,
    "▁سرباز": 3077,
    "▁منتشر": 3078,
    "▁نوزده": 3079,
    "▁برخورد": 3080,
    "▁درست": 3081,
    "▁خردش": 3082,
    "▁متفرع": 3083,
    "▁افزوده": 3084,
    "▁متعامل": 3085,
    "▁انتفا": 3086,
    "کثیر": 3087,
    "▁اسکان": 3088,
    "کف": 3089,
    "▁شکار": 3090,
    "▁اتکا": 3091,
    "▁مالباخته": 3092,
    "▁ابتلا": 3093,
    "یجار": 3094,
    "یز": 3095,
    "▁جب": 3096,
    "▁مراود": 3097,
    "▁جد": 3098,
    "▁منحل": 3099,
    "▁سپر": 3100,
    "برد": 3101,
    "▁امت": 3102,
    "▁دایم": 3103,
    "▁رسیدهای": 3104,
    "شار": 3105,
    "▁دانست": 3106,
    "▁سای": 3107,
    "▁هوای": 3108,
    "▁قدیم": 3109,
    "▁توانا": 3110,
    "خت": 3111,
    "▁صا": 3112,
    "▁قلب": 3113,
    "▁آشنا": 3114,
    "دنظر": 3115,
    "سند": 3116,
    "▁گن": 3117,
    "تلاف": 3118,
    "▁شن": 3119,
    "لحا": 3120,
    "اشرت": 3121,
    "▁قضا": 3122,
    "اشکال": 3123,
    "▁ارث": 3124,
    "▁حر": 3125,
    "جور": 3126,
    "کاربر": 3127,
    "ناع": 3128,
    "▁تشوی": 3129,
    "▁سالیان": 3130,
    "▁رز": 3131,
    "▁موضوعی": 3132,
    "▁گذر": 3133,
    "دقیق": 3134,
    "▁لب": 3135,
    "▁ادار": 3136,
    "▁الغا": 3137,
    "▁بن": 3138,
    "هر": 3139,
    "▁چکها": 3140,
    "▁فاکتورها": 3141,
    "گو": 3142,
    "حدود": 3143,
    "▁ارد": 3144,
    "▁جر": 3145,
    "▁دادسر": 3146,
    "تضامن": 3147,
    "رار": 3148,
    "▁نشری": 3149,
    "کوئی": 3150,
    "ستم": 3151,
    "ظهار": 3152,
    "▁امید": 3153,
    "وران": 3154,
    "▁سوز": 3155,
    "موع": 3156,
    "▁عاری": 3157,
    "▁مالکان": 3158,
    "جلوب": 3159,
    "فحش": 3160,
    "▁خا": 3161,
    "▁بالس": 3162,
    "سری": 3163,
    "خیر": 3164,
    "بری": 3165,
    "▁مقطع": 3166,
    "▁قصا": 3167,
    "▁هرم": 3168,
    "کنوان": 3169,
    "انقلاب": 3170,
    "▁ات": 3171,
    "▁نهاده": 3172,
    "ئت": 3173,
    "سروی": 3174,
    "▁مدل": 3175,
    "▁جنای": 3176,
    "▁مأذون": 3177,
    "▁استنتاج": 3178,
    "▁بازنشست": 3179,
    "▁اقوام": 3180,
    "▁حرکات": 3181,
    "▁اینترنت": 3182,
    "▁اعزام": 3183,
    "▁رکیک": 3184,
    "▁مکاتب": 3185,
    "▁الملل": 3186,
    "▁روحانی": 3187,
    "▁درمانگاه": 3188,
    "▁نوشهر": 3189,
    "▁مخفی": 3190,
    "قانون": 3191,
    "▁وانتقال": 3192,
    "زای": 3193,
    "▁مانور": 3194,
    "▁تعبیر": 3195,
    "▁جواب": 3196,
    "▁بالاتر": 3197,
    "▁حصار": 3198,
    "▁مکالم": 3199,
    "▁بنگاه": 3200,
    "▁جواهر": 3201,
    "▁کارگ": 3202,
    "▁الناس": 3203,
    "▁ترکیب": 3204,
    "قاب": 3205,
    "▁باردار": 3206,
    "▁عی": 3207,
    "▁اخیرا": 3208,
    "▁شاخه": 3209,
    "عام": 3210,
    "وکالت": 3211,
    "بع": 3212,
    "▁افشا": 3213,
    "اوی": 3214,
    "▁نداشت": 3215,
    "▁غذا": 3216,
    "▁ملح": 3217,
    "▁تلوی": 3218,
    "▁مقا": 3219,
    "▁وکل": 3220,
    "▁¬": 3221,
    "▁سریع": 3222,
    "صورتی": 3223,
    "▁نفت": 3224,
    "بل": 3225,
    "▁قف": 3226,
    "▁تشری": 3227,
    "▁غالب": 3228,
    "▁دوستان": 3229,
    "▁بیگان": 3230,
    "سار": 3231,
    "▁استخر": 3232,
    "عین": 3233,
    "▁علمی": 3234,
    "▁دانش": 3235,
    "▁معت": 3236,
    "▁مفرو": 3237,
    "▁شریف": 3238,
    "مستندا": 3239,
    "خواهان": 3240,
    "رون": 3241,
    "کیفرخواست": 3242,
    "ادث": 3243,
    "▁جنسی": 3244,
    "زاق": 3245,
    "▁سائ": 3246,
    "▁سنی": 3247,
    "▁فاسد": 3248,
    "ایج": 3249,
    "▁بسا": 3250,
    "متعارف": 3251,
    "▁گشته": 3252,
    "▁بزهکار": 3253,
    "شتم": 3254,
    "بانک": 3255,
    "▁الم": 3256,
    "▁قصر": 3257,
    "▁عال": 3258,
    "▁گذاشتن": 3259,
    "▁کشی": 3260,
    "تب": 3261,
    "سا": 3262,
    "▁البر": 3263,
    "توسل": 3264,
    "▁تقد": 3265,
    "یید": 3266,
    "داشته": 3267,
    "دخول": 3268,
    "خش": 3269,
    "یس": 3270,
    "وچهار": 3271,
    "▁وجو": 3272,
    "اجاره": 3273,
    "▁موید": 3274,
    "صلاح": 3275,
    "ائت": 3276,
    "ویس": 3277,
    "ازش": 3278,
    "▁معی": 3279,
    "طرف": 3280,
    "فسخ": 3281,
    "صیل": 3282,
    "▁شوهردار": 3283,
    "متن": 3284,
    "ومیت": 3285,
    "طب": 3286,
    "عی": 3287,
    "▁مختص": 3288,
    "▁حلق": 3289,
    "ماه": 3290,
    "آزاد": 3291,
    "کس": 3292,
    "جان": 3293,
    "▁میدان": 3294,
    "یری": 3295,
    "تمان": 3296,
    "▁خال": 3297,
    "ومت": 3298,
    "قای": 3299,
    "▁پن": 3300,
    "▁خیاط": 3301,
    "خیری": 3302,
    "▁روستا": 3303,
    "پرورش": 3304,
    "اط": 3305,
    "ادت": 3306,
    "نظار": 3307,
    "▁تق": 3308,
    "▁اشتباها": 3309,
    "▁امکانات": 3310,
    "▁نوسا": 3311,
    "دیش": 3312,
    "رقت": 3313,
    "▁لر": 3314,
    "ازک": 3315,
    "▁شما": 3316,
    "▁آد": 3317,
    "▁ایقا": 3318,
    "▁اخ": 3319,
    "▁شرحی": 3320,
    "اعل": 3321,
    "اسلام": 3322,
    "▁صادق": 3323,
    "تصور": 3324,
    "▁مدار": 3325,
    "وقع": 3326,
    "▁خریده": 3327,
    "▁گستر": 3328,
    "ردد": 3329,
    "▁مترو": 3330,
    "▁مستثنی": 3331,
    "مگر": 3332,
    "▁انگ": 3333,
    "▁قب": 3334,
    "▁هواپیما": 3335,
    "▁گلدکوئ": 3336,
    "▁امحاء": 3337,
    "▁توفیق": 3338,
    "▁ورزیده": 3339,
    "▁پلاستیک": 3340,
    "▁عزیزال": 3341,
    "▁معذور": 3342,
    "ونی": 3343,
    "رگ": 3344,
    "▁اطاق": 3345,
    "▁معیشت": 3346,
    "▁مسائل": 3347,
    "▁تتمیم": 3348,
    "▁مسایل": 3349,
    "▁حیوان": 3350,
    "▁محتمل": 3351,
    "▁مسافرت": 3352,
    "ارگران": 3353,
    "▁افاده": 3354,
    "▁منصوص": 3355,
    "▁تایپ": 3356,
    "▁مسقط": 3357,
    "برهن": 3358,
    "▁همسایگ": 3359,
    "دره": 3360,
    "▁قاپی": 3361,
    "قان": 3362,
    "▁تک": 3363,
    "▁کشید": 3364,
    "▁تراز": 3365,
    "▁کارگری": 3366,
    "▁بهاء": 3367,
    "▁هرماه": 3368,
    "▁راه": 3369,
    "▁تعالی": 3370,
    "▁مقدس": 3371,
    "▁تنازع": 3372,
    "▁سانتی": 3373,
    "▁رضای": 3374,
    "▁سری": 3375,
    "▁منصوب": 3376,
    "▁اب": 3377,
    "نون": 3378,
    "▁رسانی": 3379,
    "شخیص": 3380,
    "▁مط": 3381,
    "▁لیس": 3382,
    "تاب": 3383,
    "کوه": 3384,
    "شرکت": 3385,
    "▁فحشا": 3386,
    "▁مرغ": 3387,
    "▁تهر": 3388,
    "▁انج": 3389,
    "رومی": 3390,
    "تکاب": 3391,
    "ساری": 3392,
    "▁مجم": 3393,
    "▁نگاه": 3394,
    "آور": 3395,
    "▁حفر": 3396,
    "▁فرو": 3397,
    "▁ثمر": 3398,
    "اجا": 3399,
    "▁نسبی": 3400,
    "▁زا": 3401,
    "▁واض": 3402,
    "▁سندی": 3403,
    "رشوه": 3404,
    "▁آبی": 3405,
    "افت": 3406,
    "▁ثل": 3407,
    "▁دستم": 3408,
    "▁موک": 3409,
    "دولت": 3410,
    "▁محت": 3411,
    "▁خورد": 3412,
    "▁سهل": 3413,
    "تک": 3414,
    "رائت": 3415,
    "اعتبار": 3416,
    "جدید": 3417,
    "▁منت": 3418,
    "متع": 3419,
    "داش": 3420,
    "مدی": 3421,
    "گزارش": 3422,
    "▁مستندی": 3423,
    "▁قیدشد": 3424,
    "▁تولی": 3425,
    "بردار": 3426,
    "وشهر": 3427,
    "سج": 3428,
    "یج": 3429,
    "رای": 3430,
    "کاری": 3431,
    "▁آسان": 3432,
    "وسط": 3433,
    "▁اظهارداشت": 3434,
    "شته": 3435,
    "الت": 3436,
    "پر": 3437,
    "تأدی": 3438,
    "▁نف": 3439,
    "سف": 3440,
    "▁حفار": 3441,
    "عباس": 3442,
    "▁ابقا": 3443,
    "شرک": 3444,
    "▁دختران": 3445,
    "مینی": 3446,
    "▁لایح": 3447,
    "کیفر": 3448,
    "▁برسان": 3449,
    "▁مز": 3450,
    "اصفه": 3451,
    "افزای": 3452,
    "▁قدامی": 3453,
    "تنکا": 3454,
    "رفتار": 3455,
    "شرعی": 3456,
    "▁حی": 3457,
    "عظم": 3458,
    "▁چوب": 3459,
    "▁موضوعات": 3460,
    "▁اصلا": 3461,
    "دارند": 3462,
    "سنگر": 3463,
    "چوب": 3464,
    "وفروش": 3465,
    "▁تاب": 3466,
    "▁محصو": 3467,
    "▁بستان": 3468,
    "▁متم": 3469,
    "▁عط": 3470,
    "▁ره": 3471,
    "▁ضر": 3472,
    "▁آهنگ": 3473,
    "▁خودروها": 3474,
    "نو": 3475,
    "▁نرسید": 3476,
    "قر": 3477,
    "ظهر": 3478,
    "تخصص": 3479,
    "چال": 3480,
    "انتفاع": 3481,
    "▁مقتضا": 3482,
    "دهم": 3483,
    "▁ایذ": 3484,
    "▁بده": 3485,
    "خوان": 3486,
    "تکی": 3487,
    "واعد": 3488,
    "▁مد": 3489,
    "▁المث": 3490,
    "▁کدخدا": 3491,
    "▁سئوال": 3492,
    "▁نوجوان": 3493,
    "▁تفصیل": 3494,
    "▁ابتیاع": 3495,
    "▁پیشنهاد": 3496,
    "▁مختار": 3497,
    "▁اقلیت": 3498,
    "▁گمراه": 3499,
    "▁بازدارند": 3500,
    "▁مستمسک": 3501,
    "▁متعارض": 3502,
    "▁عند": 3503,
    "بحث": 3504,
    "▁اشارت": 3505,
    "▁شهروند": 3506,
    "▁محصن": 3507,
    "بارز": 3508,
    "▁مراد": 3509,
    "صواب": 3510,
    "شرح": 3511,
    "▁سخت": 3512,
    "وانع": 3513,
    "▁شام": 3514,
    "▁مصط": 3515,
    "▁شکوا": 3516,
    "عداد": 3517,
    "▁صداق": 3518,
    "▁نوشتن": 3519,
    "▁تام": 3520,
    "اهان": 3521,
    "▁تناقض": 3522,
    "زیست": 3523,
    "▁ساعات": 3524,
    "▁خانوا": 3525,
    "▁سلیمان": 3526,
    "لام": 3527,
    "▁سرد": 3528,
    "▁مشرف": 3529,
    "پری": 3530,
    "▁منطق": 3531,
    "▁دستورات": 3532,
    "آنجایی": 3533,
    "ظرف": 3534,
    "▁همک": 3535,
    "پرونده": 3536,
    "▁سکو": 3537,
    "▁استف": 3538,
    "الیه": 3539,
    "▁افعال": 3540,
    "▁غیرواقع": 3541,
    "▁مجانی": 3542,
    "تجدیدنظر": 3543,
    "▁احتمالا": 3544,
    "▁اراک": 3545,
    "قطع": 3546,
    "▁اثنا": 3547,
    "▁امرار": 3548,
    "▁قرارداده": 3549,
    "رع": 3550,
    "▁مته": 3551,
    "▁زای": 3552,
    "▁مصدومی": 3553,
    "▁بالم": 3554,
    "▁مشهو": 3555,
    "بوده": 3556,
    "رح": 3557,
    "رشید": 3558,
    "واهان": 3559,
    "▁پیوسته": 3560,
    "یزد": 3561,
    "▁هوا": 3562,
    "لل": 3563,
    "شتی": 3564,
    "▁آمل": 3565,
    "ریق": 3566,
    "ولاد": 3567,
    "ائف": 3568,
    "▁پذیرفتن": 3569,
    "▁شکسته": 3570,
    "مالی": 3571,
    "▁نیر": 3572,
    "▁گم": 3573,
    "▁زد": 3574,
    "لوب": 3575,
    "▁ذهن": 3576,
    "نیا": 3577,
    "گواهی": 3578,
    "اسب": 3579,
    "اح": 3580,
    "فصل": 3581,
    "ائ": 3582,
    "▁اق": 3583,
    "▁وک": 3584,
    "▁الذ": 3585,
    "ترتب": 3586,
    "ستناد": 3587,
    "وهشت": 3588,
    "لاش": 3589,
    "گردید": 3590,
    "▁شوک": 3591,
    "اینک": 3592,
    "▁عملی": 3593,
    "▁ارتفا": 3594,
    "ارگا": 3595,
    "ورود": 3596,
    "عموم": 3597,
    "حاکم": 3598,
    "رفت": 3599,
    "▁مهندس": 3600,
    "▁عوا": 3601,
    "شماره": 3602,
    "▁زو": 3603,
    "ویت": 3604,
    "▁حسابدار": 3605,
    "ریک": 3606,
    "بوع": 3607,
    "▁الو": 3608,
    "یدن": 3609,
    "فروش": 3610,
    "▁دادنام": 3611,
    "▁استی": 3612,
    "زا": 3613,
    "شن": 3614,
    "▁شر": 3615,
    "▁صدای": 3616,
    "▁وسائ": 3617,
    "پنجم": 3618,
    "▁وج": 3619,
    "متهم": 3620,
    "▁اهم": 3621,
    "تم": 3622,
    "نز": 3623,
    "▁مجاور": 3624,
    "اخلاق": 3625,
    "▁حائ": 3626,
    "عات": 3627,
    "▁سف": 3628,
    "اهل": 3629,
    "▁راهن": 3630,
    "خذ": 3631,
    "ورز": 3632,
    "▁مشکو": 3633,
    "▁گان": 3634,
    "عذر": 3635,
    "عهد": 3636,
    "▁غر": 3637,
    "▁نمایان": 3638,
    "▁تحمیل": 3639,
    "لخص": 3640,
    "▁منف": 3641,
    "▁آم": 3642,
    "▁بندر": 3643,
    "▁اصطلاح": 3644,
    "▁تهدیدآمیز": 3645,
    "▁ناچیز": 3646,
    "▁کامپیوتر": 3647,
    "▁مکتسب": 3648,
    "▁ابزار": 3649,
    "▁یورو": 3650,
    "▁سرتیپ": 3651,
    "▁شرافت": 3652,
    "▁سفارش": 3653,
    "▁خلوت": 3654,
    "▁پاسدار": 3655,
    "▁معقول": 3656,
    "▁استعفا": 3657,
    "▁ندامتگاه": 3658,
    "▁آزمایشگاه": 3659,
    "سلام": 3660,
    "▁سهامدار": 3661,
    "▁خادم": 3662,
    "▁فرصت": 3663,
    "چش": 3664,
    "▁واقف": 3665,
    "بادر": 3666,
    "خور": 3667,
    "دآباد": 3668,
    "اث": 3669,
    "▁گاو": 3670,
    "▁موت": 3671,
    "▁تقدی": 3672,
    "▁ناقل": 3673,
    "تن": 3674,
    "ظام": 3675,
    "▁امضاکنند": 3676,
    "▁جاعل": 3677,
    "رابر": 3678,
    "▁ریخت": 3679,
    "وساز": 3680,
    "▁امتیازات": 3681,
    "نسبت": 3682,
    "عده": 3683,
    "▁خواند": 3684,
    "▁اشکالات": 3685,
    "راق": 3686,
    "▁توکیل": 3687,
    "رمای": 3688,
    "▁زائ": 3689,
    "قام": 3690,
    "▁بنز": 3691,
    "▁دزد": 3692,
    "بته": 3693,
    "▁شهرها": 3694,
    "▁هدای": 3695,
    "یامده": 3696,
    "راه": 3697,
    "▁دانشجوی": 3698,
    "▁صابر": 3699,
    "مطالب": 3700,
    "راحت": 3701,
    "رأی": 3702,
    "کو": 3703,
    "دعوی": 3704,
    "جرم": 3705,
    "▁ربو": 3706,
    "نوس": 3707,
    "▁شست": 3708,
    "ئب": 3709,
    "▁گلو": 3710,
    "ولی": 3711,
    "جانی": 3712,
    "▁نیس": 3713,
    "سرای": 3714,
    "▁انق": 3715,
    "یرفت": 3716,
    "عا": 3717,
    "طاری": 3718,
    "شتر": 3719,
    "▁وف": 3720,
    "ذب": 3721,
    "نازع": 3722,
    "بانی": 3723,
    "موده": 3724,
    "وکی": 3725,
    "لاح": 3726,
    "▁سفر": 3727,
    "▁الحس": 3728,
    "تبع": 3729,
    "وک": 3730,
    "▁معر": 3731,
    "یاء": 3732,
    "▁سیر": 3733,
    "تور": 3734,
    "▁عقیم": 3735,
    "ربط": 3736,
    "شائ": 3737,
    "ائن": 3738,
    "▁غی": 3739,
    "ظرخواهی": 3740,
    "قبیل": 3741,
    "مرات": 3742,
    "ینت": 3743,
    "فاق": 3744,
    "▁الوص": 3745,
    "رستان": 3746,
    "▁نشین": 3747,
    "▁مبی": 3748,
    "▁نگ": 3749,
    "▁اغ": 3750,
    "منش": 3751,
    "▁ناز": 3752,
    "تعارف": 3753,
    "نرم": 3754,
    "▁ترس": 3755,
    "▁اهدا": 3756,
    "▁تأم": 3757,
    "▁کیفی": 3758,
    "▁کد": 3759,
    "اوری": 3760,
    "▁اقت": 3761,
    "▁اللو": 3762,
    "لف": 3763,
    "▁پرداز": 3764,
    "ظر": 3765,
    "▁سامان": 3766,
    "▁یدک": 3767,
    "▁معدن": 3768,
    "گرداند": 3769,
    "رساند": 3770,
    "احی": 3771,
    "▁میل": 3772,
    "فک": 3773,
    "▁توانست": 3774,
    "▁دادگا": 3775,
    "جایی": 3776,
    "گا": 3777,
    "تهران": 3778,
    "هرمز": 3779,
    "آمد": 3780,
    "▁اف": 3781,
    "اهت": 3782,
    "▁جها": 3783,
    "یافته": 3784,
    "▁شع": 3785,
    "ارس": 3786,
    "وسی": 3787,
    "فزون": 3788,
    "▁ترب": 3789,
    "▁مرز": 3790,
    "▁ولا": 3791,
    "▁گود": 3792,
    "هن": 3793,
    "امیه": 3794,
    "▁ارشد": 3795,
    "همین": 3796,
    "▁مشروعی": 3797,
    "کردن": 3798,
    "مجرمیت": 3799,
    "لمان": 3800,
    "▁فو": 3801,
    "نم": 3802,
    "تگی": 3803,
    "▁دیو": 3804,
    "▁کیس": 3805,
    "گذشته": 3806,
    "طبع": 3807,
    "▁شم": 3808,
    "استطاع": 3809,
    "زابل": 3810,
    "دادرسی": 3811,
    "▁سیما": 3812,
    "انتشار": 3813,
    "▁مور": 3814,
    "تبانی": 3815,
    "▁مواقع": 3816,
    "▁مأموریت": 3817,
    "قبل": 3818,
    "▁زنجیر": 3819,
    "▁اجر": 3820,
    "داق": 3821,
    "ورد": 3822,
    "▁طب": 3823,
    "▁عزی": 3824,
    "اور": 3825,
    "بعه": 3826,
    "نقل": 3827,
    "▁انداخت": 3828,
    "کنند": 3829,
    "وس": 3830,
    "مشار": 3831,
    "▁الزاما": 3832,
    "▁فشا": 3833,
    "روی": 3834,
    "▁پروند": 3835,
    "▁تابلو": 3836,
    "ترداد": 3837,
    ".": 3838,
    "▁دستی": 3839,
    "ساق": 3840,
    "عن": 3841,
    "▁مسافر": 3842,
    "وانه": 3843,
    "▁معالج": 3844,
    "حکام": 3845,
    "▁آنه": 3846,
    "▁نودو": 3847,
    "▁خل": 3848,
    "▁جرثقیل": 3849,
    "▁گیجگاه": 3850,
    "▁پرسنل": 3851,
    "▁گوسفند": 3852,
    "▁استقلال": 3853,
    "▁کبیر": 3854,
    "▁بلاتکلیف": 3855,
    "بخیز": 3856,
    "▁ناح": 3857,
    "▁النگو": 3858,
    "▁دشوار": 3859,
    "▁سخن": 3860,
    "▁مختل": 3861,
    "▁قرمز": 3862,
    "▁فرآورده": 3863,
    "▁مبتلا": 3864,
    "▁قیود": 3865,
    "▁تاکسی": 3866,
    "▁مهماندار": 3867,
    "▁ناچار": 3868,
    "▁حکیمی": 3869,
    "▁احساس": 3870,
    "▁روبرو": 3871,
    "▁جابجا": 3872,
    "▁وحش": 3873,
    "▁تحریک": 3874,
    "▁حافظ": 3875,
    "اتی": 3876,
    "قاطع": 3877,
    "▁رمز": 3878,
    "▁فراغ": 3879,
    "خصیص": 3880,
    "▁طر": 3881,
    "▁وارث": 3882,
    "▁پاسخگوی": 3883,
    "عت": 3884,
    "▁ساک": 3885,
    "▁اقای": 3886,
    "▁نمو": 3887,
    "▁اسفل": 3888,
    "▁تنفس": 3889,
    "▁فور": 3890,
    "حکیم": 3891,
    "▁شوراها": 3892,
    "▁بخ": 3893,
    "▁راهرو": 3894,
    "نگ": 3895,
    "زات": 3896,
    "کم": 3897,
    "▁مساعد": 3898,
    "▁ناگ": 3899,
    "▁زارع": 3900,
    "▁مجزا": 3901,
    "▁حری": 3902,
    "آباد": 3903,
    "▁متوفای": 3904,
    "مایشگاه": 3905,
    "▁ظن": 3906,
    "▁اه": 3907,
    "▁کشیده": 3908,
    "▁نامیده": 3909,
    "▁جدیدال": 3910,
    "صغر": 3911,
    "عریض": 3912,
    "▁ملحق": 3913,
    "تناقض": 3914,
    "بلا": 3915,
    "▁نمانده": 3916,
    "حله": 3917,
    "▁پخ": 3918,
    "▁آبروی": 3919,
    "▁صف": 3920,
    "▁مص": 3921,
    "▁اکبر": 3922,
    "▁واج": 3923,
    "شک": 3924,
    "▁وادار": 3925,
    "▁طهر": 3926,
    "▁نبو": 3927,
    "قا": 3928,
    "قبولی": 3929,
    "خلال": 3930,
    "▁بلند": 3931,
    "▁کمپ": 3932,
    "نیم": 3933,
    "درال": 3934,
    "▁احیا": 3935,
    "ایراد": 3936,
    "خواهند": 3937,
    "ثبت": 3938,
    "▁پرواز": 3939,
    "دسر": 3940,
    "یب": 3941,
    "تو": 3942,
    "روعی": 3943,
    "▁عرب": 3944,
    "▁منبع": 3945,
    "▁شای": 3946,
    "▁مذ": 3947,
    "▁مأ": 3948,
    "لبکار": 3949,
    "▁خاور": 3950,
    "▁نیاوردن": 3951,
    "▁قشلاق": 3952,
    "▁رأ": 3953,
    "▁گزین": 3954,
    "ستن": 3955,
    "▁بپذیر": 3956,
    "فارق": 3957,
    "▁منشا": 3958,
    "▁خوش": 3959,
    "رسیدگی": 3960,
    "وده": 3961,
    "▁روزه": 3962,
    "▁فرمای": 3963,
    "▁مصر": 3964,
    "▁وصل": 3965,
    "ناصف": 3966,
    "دوق": 3967,
    "اختلاف": 3968,
    "نگردی": 3969,
    "غص": 3970,
    "▁اور": 3971,
    "کاره": 3972,
    "امور": 3973,
    "رفته": 3974,
    "▁سب": 3975,
    "▁دلال": 3976,
    "چرخ": 3977,
    "▁ندادن": 3978,
    "▁ادعاها": 3979,
    "مدت": 3980,
    "▁شکو": 3981,
    "▁مکانی": 3982,
    "▁شکای": 3983,
    "▁پذیرفت": 3984,
    "▁درامور": 3985,
    "▁کمی": 3986,
    "اتر": 3987,
    "▁آما": 3988,
    "▁گذاشت": 3989,
    "اطف": 3990,
    "▁منا": 3991,
    "متنا": 3992,
    "▁گذارد": 3993,
    "▁الله": 3994,
    "▁تض": 3995,
    "قصد": 3996,
    "اغ": 3997,
    "▁صدقه": 3998,
    "▁پیامکها": 3999,
    "غه": 4000,
    "قوی": 4001,
    "خواست": 4002,
    "داور": 4003,
    "آیند": 4004,
    "▁کوه": 4005,
    "▁مسئولی": 4006,
    "مورد": 4007,
    "لوار": 4008,
    "▁یخ": 4009,
    "▁هن": 4010,
    "▁جه": 4011,
    "▁محرم": 4012,
    "شع": 4013,
    "نمایند": 4014,
    "افی": 4015,
    "▁تعزی": 4016,
    "لوک": 4017,
    "فرجام": 4018,
    "قبول": 4019,
    "▁نوک": 4020,
    "هزار": 4021,
    "▁هی": 4022,
    "قضی": 4023,
    "▁مبل": 4024,
    "فر": 4025,
    "بیست": 4026,
    "▁شاهدی": 4027,
    "▁الادا": 4028,
    "شخص": 4029,
    "اجرای": 4030,
    "آمده": 4031,
    "اوند": 4032,
    "▁مطر": 4033,
    "▁تز": 4034,
    "عم": 4035,
    "نک": 4036,
    "حوال": 4037,
    "شدن": 4038,
    "▁حسین": 4039,
    "تحصیل": 4040,
    "▁باخت": 4041,
    "▁ازای": 4042,
    "▁دهن": 4043,
    "جب": 4044,
    "لو": 4045,
    "علاو": 4046,
    "▁تعمی": 4047,
    "اختیار": 4048,
    "برای": 4049,
    "انده": 4050,
    "▁دادسراها": 4051,
    "پارس": 4052,
    "▁خدا": 4053,
    "▁سازندگ": 4054,
    "▁گاه": 4055,
    "▁آبرو": 4056,
    "سلیمان": 4057,
    "نشین": 4058,
    "▁ماجرا": 4059,
    "برگزار": 4060,
    "آب": 4061,
    "زیر": 4062,
    "▁نخ": 4063,
    "▁عنهم": 4064,
    "▁موضوعا": 4065,
    "▁نگرفت": 4066,
    "▁علا": 4067,
    "میلیون": 4068,
    "▁ساو": 4069,
    "گذر": 4070,
    "▁صغ": 4071,
    "ساوی": 4072,
    "میت": 4073,
    "▁افزو": 4074,
    "ذکور": 4075,
    "▁روش": 4076,
    "مواد": 4077,
    "خورد": 4078,
    "رانی": 4079,
    "▁جملات": 4080,
    "طابق": 4081,
    "نای": 4082,
    "▁نظرکارشناس": 4083,
    "▁سین": 4084,
    "مول": 4085,
    "رک": 4086,
    "▁اختصا": 4087,
    "▁آشپز": 4088,
    "▁نابسامان": 4089,
    "▁سیگار": 4090,
    "▁ساندیس": 4091,
    "▁مبسوط": 4092,
    "▁مهرورز": 4093,
    "▁خویشاوند": 4094,
    "▁مطمح": 4095,
    "▁مصنوع": 4096,
    "▁یادآور": 4097,
    "▁غرض": 4098,
    "▁نوزاد": 4099,
    "▁مسلط": 4100,
    "نورگیر": 4101,
    "▁علیحده": 4102,
    "▁مثمر": 4103,
    "▁تذکار": 4104,
    "یوس": 4105,
    "▁مباینت": 4106,
    "▁اشرفی": 4107,
    "▁تشابه": 4108,
    "▁ملأ": 4109,
    "▁مشاجر": 4110,
    "لاستیک": 4111,
    "▁ترمیم": 4112,
    "▁وثوق": 4113,
    "▁توصی": 4114,
    "▁عاطف": 4115,
    "▁استثنائ": 4116,
    "▁مکفی": 4117,
    "▁تصالح": 4118,
    "▁افزودن": 4119,
    "▁مغز": 4120,
    "▁هشدار": 4121,
    "▁خف": 4122,
    "▁انقطاع": 4123,
    "▁متباین": 4124,
    "▁گناهکار": 4125,
    "وثر": 4126,
    "وپن": 4127,
    "▁عفو": 4128,
    "تحم": 4129,
    "▁دق": 4130,
    "▁برس": 4131,
    "▁مواظب": 4132,
    "▁دخول": 4133,
    "▁ترا": 4134,
    "▁خراب": 4135,
    "ماس": 4136,
    "▁لاک": 4137,
    "▁کان": 4138,
    "▁شاسی": 4139,
    "▁همد": 4140,
    "▁تراش": 4141,
    "▁ضررهای": 4142,
    "▁یافت": 4143,
    "▁درخ": 4144,
    "▁طاق": 4145,
    "▁ترسیم": 4146,
    "▁کی": 4147,
    "حمت": 4148,
    "انع": 4149,
    "تول": 4150,
    "اخذ": 4151,
    "▁همانطوری": 4152,
    "▁محار": 4153,
    "▁قاسم": 4154,
    "▁اقبا": 4155,
    "▁جعفر": 4156,
    "وشش": 4157,
    "▁نامزد": 4158,
    "▁دادگاهها": 4159,
    "رشد": 4160,
    "▁آلود": 4161,
    "ثال": 4162,
    "▁روا": 4163,
    "فرور": 4164,
    "روئی": 4165,
    "تیپ": 4166,
    "بال": 4167,
    "▁کلاش": 4168,
    "قو": 4169,
    "هرست": 4170,
    "¬¬": 4171,
    "▁ظنی": 4172,
    "شکار": 4173,
    "▁زنجیره": 4174,
    "▁بخشیده": 4175,
    "▁فتا": 4176,
    "شام": 4177,
    "▁عبارتند": 4178,
    "▁گفتار": 4179,
    "اف": 4180,
    "▁کنگ": 4181,
    "▁فش": 4182,
    "هان": 4183,
    "▁آز": 4184,
    "▁خاطی": 4185,
    "▁داماد": 4186,
    "▁محمدی": 4187,
    "فس": 4188,
    "بهشت": 4189,
    "یف": 4190,
    "گلا": 4191,
    "▁بوسی": 4192,
    "▁مرک": 4193,
    "اعات": 4194,
    "دعای": 4195,
    "▁پایین": 4196,
    "رخص": 4197,
    "احداث": 4198,
    "▁عارض": 4199,
    "مپ": 4200,
    "▁الار": 4201,
    "▁عضوی": 4202,
    "▁مرتع": 4203,
    "▁وحق": 4204,
    "رش": 4205,
    "قدمت": 4206,
    "افه": 4207,
    "▁مهاجر": 4208,
    "یاب": 4209,
    "▁ناموس": 4210,
    "▁اینجا": 4211,
    "▁محصل": 4212,
    "شکل": 4213,
    "▁آت": 4214,
    "▁کول": 4215,
    "▁آوردن": 4216,
    "▁قهر": 4217,
    "▁حسینی": 4218,
    "لوت": 4219,
    "▁غل": 4220,
    "دوسی": 4221,
    "عابر": 4222,
    "▁قص": 4223,
    "رده": 4224,
    "وال": 4225,
    "گیرند": 4226,
    "أی": 4227,
    "▁کاشت": 4228,
    "▁الوفا": 4229,
    "کشور": 4230,
    "▁مبارک": 4231,
    "سوس": 4232,
    "زیه": 4233,
    "▁عیوب": 4234,
    "▁مشک": 4235,
    "▁شنید": 4236,
    "▁دف": 4237,
    "روب": 4238,
    "▁بعداز": 4239,
    "▁غیرمم": 4240,
    "▁مغ": 4241,
    "▁نت": 4242,
    "آورده": 4243,
    "▁توام": 4244,
    "تقد": 4245,
    "▁هیچگ": 4246,
    "ابعا": 4247,
    "پلاک": 4248,
    "حد": 4249,
    "▁انت": 4250,
    "▁کلاهبردا": 4251,
    "▁کنت": 4252,
    "▁تنه": 4253,
    "▁کو": 4254,
    "▁دیدگا": 4255,
    "ریزش": 4256,
    "▁امورخانه": 4257,
    "راک": 4258,
    "رعا": 4259,
    "▁لعا": 4260,
    "قناع": 4261,
    "▁نب": 4262,
    "▁زار": 4263,
    "رحال": 4264,
    "▁خودروهای": 4265,
    "▁خرما": 4266,
    "ستاری": 4267,
    "▁ارثی": 4268,
    "جنون": 4269,
    "▁مشخصا": 4270,
    "وغ": 4271,
    "محکوم": 4272,
    "برده": 4273,
    "فق": 4274,
    "الزام": 4275,
    "دربزرگ": 4276,
    "سن": 4277,
    "▁تجدیدن": 4278,
    "پوست": 4279,
    "▁جنا": 4280,
    "غذ": 4281,
    "▁مضا": 4282,
    "زدی": 4283,
    "ایص": 4284,
    "▁جع": 4285,
    "▁ترج": 4286,
    "دادخواست": 4287,
    "بطه": 4288,
    "▁معلم": 4289,
    "▁وال": 4290,
    "بخش": 4291,
    "سان": 4292,
    "▁پروا": 4293,
    "تحویل": 4294,
    "معارض": 4295,
    "فوی": 4296,
    "رمند": 4297,
    "▁مملک": 4298,
    "موت": 4299,
    "حضور": 4300,
    "رآباد": 4301,
    "فاهم": 4302,
    "سبی": 4303,
    "آیین": 4304,
    "سانی": 4305,
    "ضائ": 4306,
    "▁قط": 4307,
    "▁سرین": 4308,
    "قید": 4309,
    "اهی": 4310,
    "نبوده": 4311,
    "طریق": 4312,
    "مذکور": 4313,
    "گذشت": 4314,
    "سابق": 4315,
    "حب": 4316,
    "▁ظ": 4317,
    "صحیح": 4318,
    "▁حکمی": 4319,
    "ایشگاه": 4320,
    "▁شف": 4321,
    "پزشک": 4322,
    "▁چین": 4323,
    "صریح": 4324,
    "انگه": 4325,
    "داشتن": 4326,
    "▁دلی": 4327,
    "▁جوار": 4328,
    "▁مافی": 4329,
    "مشروب": 4330,
    "اظهار": 4331,
    "ائل": 4332,
    "▁تبعا": 4333,
    "▁فوقا": 4334,
    "▁تضا": 4335,
    "▁بسر": 4336,
    "قول": 4337,
    "حر": 4338,
    "یلی": 4339,
    "اجع": 4340,
    "▁تعل": 4341,
    "▁کیل": 4342,
    "▁سازند": 4343,
    "▁دانشجو": 4344,
    "تلقی": 4345,
    "▁آستا": 4346,
    "تجدید": 4347,
    "ستاد": 4348,
    "جهات": 4349,
    "تاج": 4350,
    "▁داو": 4351,
    "غری": 4352,
    "جد": 4353,
    "▁شناخت": 4354,
    "مانع": 4355,
    "توافق": 4356,
    "▁رق": 4357,
    "▁کاربرد": 4358,
    "گام": 4359,
    "▁مان": 4360,
    "نگهداری": 4361,
    "غیره": 4362,
    "▁راهنما": 4363,
    "▁نباش": 4364,
    "▁نکردن": 4365,
    "▁تعد": 4366,
    "▁سرا": 4367,
    "لاء": 4368,
    "مورخ": 4369,
    "سطور": 4370,
    "دند": 4371,
    "لان": 4372,
    "زمان": 4373,
    "▁عینی": 4374,
    "نوشت": 4375,
    "ارن": 4376,
    "علا": 4377,
    "الاجرا": 4378,
    "▁رخ": 4379,
    "وکیل": 4380,
    "انگشت": 4381,
    "▁بهبودی": 4382,
    "مات": 4383,
    "لز": 4384,
    "شواهد": 4385,
    "سازگار": 4386,
    "▁حضورش": 4387,
    "▁همانطور": 4388,
    "▁ریش": 4389,
    "جامع": 4390,
    "او": 4391,
    "▁مالباخت": 4392,
    "مطالع": 4393,
    "سس": 4394,
    "▁زارعی": 4395,
    "▁آرام": 4396,
    "دبیر": 4397,
    "▁خرد": 4398,
    "▁فرستاد": 4399,
    "▁سببی": 4400,
    "مصدق": 4401,
    "▁الآ": 4402,
    "هیه": 4403,
    "دس": 4404,
    "صند": 4405,
    "▁گنا": 4406,
    "▁تسلی": 4407,
    "▁محکو": 4408,
    "▁رضا": 4409,
    "▁درزمان": 4410,
    "▁نداد": 4411,
    "ئید": 4412,
    "▁مزا": 4413,
    "دل": 4414,
    "▁مجرمان": 4415,
    "▁جایگ": 4416,
    "▁دشت": 4417,
    "▁مزاحم": 4418,
    "▁فرجامخواه": 4419,
    "▁استع": 4420,
    "طاب": 4421,
    "▁مهرالم": 4422,
    "پاشی": 4423,
    "جلی": 4424,
    "▁جغرافیای": 4425,
    "▁گلپایگان": 4426,
    "▁اضطرا": 4427,
    "▁اغماض": 4428,
    "▁مستخدم": 4429,
    "▁سروصدا": 4430,
    "▁لاریجان": 4431,
    "▁اکتفا": 4432,
    "▁فراموش": 4433,
    "▁خردسال": 4434,
    "▁سوءظن": 4435,
    "▁نرسانده": 4436,
    "▁ضارب": 4437,
    "▁پدرشوهر": 4438,
    "▁نگارش": 4439,
    "▁نادرست": 4440,
    "▁بسیج": 4441,
    "▁ناروا": 4442,
    "▁داروساز": 4443,
    "▁نگشته": 4444,
    "▁جمال": 4445,
    "صح": 4446,
    "▁مدخل": 4447,
    "▁زیانبار": 4448,
    "▁ترقو": 4449,
    "▁ارتفاق": 4450,
    "▁شلوار": 4451,
    "▁نپرداخته": 4452,
    "▁پودر": 4453,
    "▁مریض": 4454,
    "▁تحلیل": 4455,
    "▁بختیار": 4456,
    "▁ناتوان": 4457,
    "▁پاشید": 4458,
    "▁پناه": 4459,
    "الشر": 4460,
    "▁تعبی": 4461,
    "▁استقراع": 4462,
    "▁آرایشگر": 4463,
    "علام": 4464,
    "▁زیبا": 4465,
    "احتیا": 4466,
    "دگاه": 4467,
    "سبب": 4468,
    "▁سنگین": 4469,
    "▁جائ": 4470,
    "▁متفر": 4471,
    "▁نگذاشت": 4472,
    "▁شایس": 4473,
    "متری": 4474,
    "▁امضاهای": 4475,
    "مانی": 4476,
    "ضح": 4477,
    "▁تمبرهای": 4478,
    "▁خص": 4479,
    "▁اک": 4480,
    "▁تفوی": 4481,
    "▁رفتارهای": 4482,
    "▁فرس": 4483,
    "▁خشک": 4484,
    "خال": 4485,
    "جبرا": 4486,
    "خته": 4487,
    "▁بسیط": 4488,
    "▁ذو": 4489,
    "زک": 4490,
    "کش": 4491,
    "وگانگ": 4492,
    "شو": 4493,
    "▁جانباز": 4494,
    "یوان": 4495,
    "▁راکب": 4496,
    "▁بعید": 4497,
    "پسند": 4498,
    "غیب": 4499,
    "▁مضر": 4500,
    "وانی": 4501,
    "▁اهدای": 4502,
    "▁تعلیم": 4503,
    "▁ند": 4504,
    "▁برگرداند": 4505,
    "▁استاندار": 4506,
    "▁زحم": 4507,
    "▁نگرد": 4508,
    "▁نسل": 4509,
    "دادسرا": 4510,
    "▁تکاف": 4511,
    "انگ": 4512,
    "ناب": 4513,
    "▁انداخته": 4514,
    "▁سان": 4515,
    "لیل": 4516,
    "▁سراس": 4517,
    "▁رگ": 4518,
    "ربه": 4519,
    "جانب": 4520,
    "زایش": 4521,
    "▁اعتنا": 4522,
    "▁دوبار": 4523,
    "▁گنج": 4524,
    "خود": 4525,
    "▁ملزوم": 4526,
    "▁کابل": 4527,
    "دست": 4528,
    "تقدیم": 4529,
    "▁متبادل": 4530,
    "واع": 4531,
    "▁تکل": 4532,
    "▁دوست": 4533,
    "▁اقرب": 4534,
    "▁معلول": 4535,
    "وتا": 4536,
    "▁نبرده": 4537,
    "▁سم": 4538,
    "▁گز": 4539,
    "▁همگان": 4540,
    "رائ": 4541,
    "▁اتفاقا": 4542,
    "▁آهنگر": 4543,
    "▁ارج": 4544,
    "▁أ": 4545,
    "ذون": 4546,
    "▁هرکس": 4547,
    "فول": 4548,
    "بلاغ": 4549,
    "▁چال": 4550,
    "مسر": 4551,
    "فتا": 4552,
    "▁متحد": 4553,
    "▁شار": 4554,
    "▁درگذشت": 4555,
    "گری": 4556,
    "طر": 4557,
    "▁اورا": 4558,
    "شگاه": 4559,
    "▁نفرستاد": 4560,
    "مز": 4561,
    "▁عمر": 4562,
    "▁هنگامی": 4563,
    "عار": 4564,
    "▁وانت": 4565,
    "▁نظری": 4566,
    "شابه": 4567,
    "کافی": 4568,
    "وصول": 4569,
    "▁تره": 4570,
    "رگیر": 4571,
    "سمی": 4572,
    "▁سانت": 4573,
    "رهن": 4574,
    "▁هشتادو": 4575,
    "▁تشکی": 4576,
    "بستان": 4577,
    "عاب": 4578,
    "▁اظهاراتش": 4579,
    "اتفاق": 4580,
    "غلب": 4581,
    "▁باط": 4582,
    "اکی": 4583,
    "فو": 4584,
    "▁مقبول": 4585,
    "▁غیرمو": 4586,
    "میان": 4587,
    "▁ذه": 4588,
    "نجان": 4589,
    "دهند": 4590,
    "قص": 4591,
    "رهنگ": 4592,
    "وگستر": 4593,
    "▁وحقوق": 4594,
    "▁وابستگ": 4595,
    "لایحه": 4596,
    "چان": 4597,
    "جنو": 4598,
    "ستگاه": 4599,
    "شوند": 4600,
    "▁مجرا": 4601,
    "▁مطب": 4602,
    "▁غیرازاین": 4603,
    "▁سهمی": 4604,
    "هرماه": 4605,
    "وین": 4606,
    "▁مث": 4607,
    "گفته": 4608,
    "▁مظ": 4609,
    "▁سیا": 4610,
    "وگر": 4611,
    "▁انگو": 4612,
    "رپشت": 4613,
    "▁گسترد": 4614,
    "جای": 4615,
    "مرجع": 4616,
    "▁عز": 4617,
    "عیت": 4618,
    "▁انس": 4619,
    "رادی": 4620,
    "حرف": 4621,
    "باز": 4622,
    "ینک": 4623,
    "▁معاود": 4624,
    "▁تخفیفا": 4625,
    "▁مشرو": 4626,
    "هد": 4627,
    "بدل": 4628,
    "لاس": 4629,
    "نها": 4630,
    "▁سالم": 4631,
    "▁پیشو": 4632,
    "▁تعمد": 4633,
    "▁تدری": 4634,
    "▁قد": 4635,
    "تصرف": 4636,
    "سیر": 4637,
    "▁کارش": 4638,
    "▁خوان": 4639,
    "ستشوی": 4640,
    "▁وکا": 4641,
    "ظه": 4642,
    "گرفتن": 4643,
    "حده": 4644,
    "نحو": 4645,
    "تبصره": 4646,
    "ریه": 4647,
    "وسف": 4648,
    "وضع": 4649,
    "▁بوک": 4650,
    "رزه": 4651,
    "▁استر": 4652,
    "▁ذهنی": 4653,
    "▁زی": 4654,
    "معاش": 4655,
    "سقط": 4656,
    "▁برتری": 4657,
    "تقاضای": 4658,
    "نگر": 4659,
    "ماید": 4660,
    "▁بهانه": 4661,
    "انجام": 4662,
    "▁بگیر": 4663,
    "▁مستو": 4664,
    "▁متعا": 4665,
    "داشتی": 4666,
    "توانسته": 4667,
    "شبه": 4668,
    "▁اخر": 4669,
    "▁برا": 4670,
    "▁نوار": 4671,
    "نزل": 4672,
    "▁کارد": 4673,
    "ذع": 4674,
    "▁طف": 4675,
    "▁پسرش": 4676,
    "اثبات": 4677,
    "تمکین": 4678,
    "▁قطعا": 4679,
    "مشترک": 4680,
    "فاقد": 4681,
    "لار": 4682,
    "▁رای": 4683,
    "ارگی": 4684,
    "انو": 4685,
    "لای": 4686,
    "قد": 4687,
    "▁هک": 4688,
    "▁تأخ": 4689,
    "▁جدی": 4690,
    "تهم": 4691,
    "▁تنق": 4692,
    "حرم": 4693,
    "▁درآورد": 4694,
    "▁درحد": 4695,
    "▁هلاک": 4696,
    "▁بها": 4697,
    "▁مرجعی": 4698,
    "▁سیاس": 4699,
    "▁آش": 4700,
    "سرکا": 4701,
    "▁اظهارنمود": 4702,
    "▁ناحق": 4703,
    "شی": 4704,
    "اول": 4705,
    "▁استیلا": 4706,
    "یار": 4707,
    "وانند": 4708,
    "منفع": 4709,
    "▁واخو": 4710,
    "جرای": 4711,
    "میزان": 4712,
    "▁زود": 4713,
    "▁درحال": 4714,
    "ینا": 4715,
    "محسوب": 4716,
    "دفاع": 4717,
    "وپنج": 4718,
    "ناف": 4719,
    "دال": 4720,
    "فعالی": 4721,
    "راض": 4722,
    "▁نمون": 4723,
    "▁الح": 4724,
    "سفند": 4725,
    "انح": 4726,
    "سخ": 4727,
    "ریان": 4728,
    "مسلم": 4729,
    "نفی": 4730,
    "مندان": 4731,
    "مرحله": 4732,
    "جعل": 4733,
    "آپارتمان": 4734,
    "▁توقع": 4735,
    "فرش": 4736,
    "حقوق": 4737,
    "▁حیا": 4738,
    "▁تل": 4739,
    "یخ": 4740,
    "شاکی": 4741,
    "▁قانو": 4742,
    "جزای": 4743,
    "مراجع": 4744,
    "▁مهمان": 4745,
    "عدی": 4746,
    "▁شبا": 4747,
    "مقام": 4748,
    "لم": 4749,
    "رنگ": 4750,
    "▁نح": 4751,
    "الیهم": 4752,
    "▁متما": 4753,
    "مجعول": 4754,
    "مره": 4755,
    "عدد": 4756,
    "مکف": 4757,
    "ارم": 4758,
    "دیات": 4759,
    "▁هویتی": 4760,
    "خوا": 4761,
    "عکس": 4762,
    "سکون": 4763,
    "نمودن": 4764,
    "مدعی": 4765,
    "قضایی": 4766,
    "▁گفتن": 4767,
    "جم": 4768,
    "▁خورم": 4769,
    "والا": 4770,
    "▁جزئ": 4771,
    "▁شاک": 4772,
    "▁تقل": 4773,
    "هیز": 4774,
    "▁مقتض": 4775,
    "محترم": 4776,
    "ساخت": 4777,
    "مرکز": 4778,
    "قاچاق": 4779,
    "رق": 4780,
    "کاشان": 4781,
    "▁یافتن": 4782,
    "حین": 4783,
    "▁بای": 4784,
    "▁بخواه": 4785,
    "بای": 4786,
    "▁تبصر": 4787,
    "رضایت": 4788,
    "نفر": 4789,
    "▁پیچ": 4790,
    "احمد": 4791,
    "▁قبو": 4792,
    "معمول": 4793,
    "منظور": 4794,
    "مبلغ": 4795,
    "دعاوی": 4796,
    "▁نبا": 4797,
    "یو": 4798,
    "▁مشکی": 4799,
    "کارشناسی": 4800,
    "صول": 4801,
    "رفتن": 4802,
    "ابر": 4803,
    "▁اعدا": 4804,
    "اشی": 4805,
    "سیب": 4806,
    "▁گردیدن": 4807,
    "مایند": 4808,
    "ئین": 4809,
    "▁جلد": 4810,
    "اصر": 4811,
    "▁محمد": 4812,
    "▁ریا": 4813,
    "تأیید": 4814,
    "المن": 4815,
    "فقر": 4816,
    "شکایت": 4817,
    "تضی": 4818,
    "▁قری": 4819,
    "انکار": 4820,
    "هنر": 4821,
    "مح": 4822,
    "همان": 4823,
    "طول": 4824,
    "تجار": 4825,
    "▁پشتی": 4826,
    "ازآن": 4827,
    "الزحم": 4828,
    "فات": 4829,
    "بالات": 4830,
    "افراز": 4831,
    "▁ایست": 4832,
    "آشنای": 4833,
    "امتیاز": 4834,
    "بات": 4835,
    "مستقیم": 4836,
    "جرد": 4837,
    "یبی": 4838,
    "نند": 4839,
    "کارگاه": 4840,
    "▁عج": 4841,
    "غرب": 4842,
    "▁فروخت": 4843,
    "▁استشهاد": 4844,
    "معنو": 4845,
    "الیا": 4846,
    "متیقن": 4847,
    "▁احترا": 4848,
    "▁کلاهبر": 4849,
    "▁نپذیرفت": 4850,
    "عضو": 4851,
    "▁مامور": 4852,
    "▁معرو": 4853,
    "ذیر": 4854,
    "▁حسابرس": 4855,
    "زیک": 4856,
    "کات": 4857,
    "▁مبال": 4858,
    "بطل": 4859,
    "صلاحیت": 4860,
    "فیت": 4861,
    "قاق": 4862,
    "فا": 4863,
    "رسانی": 4864,
    "صدم": 4865,
    "▁صدو": 4866,
    "طلاع": 4867,
    "کالیف": 4868,
    "پارتمان": 4869,
    "دع": 4870,
    "▁ارتوپد": 4871,
    "▁زعفران": 4872,
    "▁نیشابور": 4873,
    "▁دیجیتال": 4874,
    "▁پرخاش": 4875,
    "▁تمثیل": 4876,
    "▁تزاحم": 4877,
    "▁تنجیز": 4878,
    "▁دیپلم": 4879,
    "▁آویخت": 4880,
    "اصغریان": 4881,
    "▁باجناق": 4882,
    "▁نابارور": 4883,
    "▁هنگفت": 4884,
    "▁نشنیده": 4885,
    "▁نوسانات": 4886,
    "▁جوابگو": 4887,
    "▁آفریقا": 4888,
    "▁سنخیت": 4889,
    "▁علاقمند": 4890,
    "▁ناگهان": 4891,
    "▁زخم": 4892,
    "▁تجربی": 4893,
    "▁میانجی": 4894,
    "غلیظ": 4895,
    "اهد": 4896,
    "▁آماتور": 4897,
    "▁مسوول": 4898,
    "▁دیسک": 4899,
    "الک": 4900,
    "حث": 4901,
    "▁تمهید": 4902,
    "▁وهفت": 4903,
    "▁سازداخل": 4904,
    "صراح": 4905,
    "▁منفردا": 4906,
    "▁مترجم": 4907,
    "▁سینمای": 4908,
    "▁پاکستان": 4909,
    "▁نسوز": 4910,
    "هشتادوچهار": 4911,
    "هفتادوچهار": 4912,
    "▁هوشی": 4913,
    "▁جرا": 4914,
    "▁پاسیو": 4915,
    "خوذ": 4916,
    "حدی": 4917,
    "▁حروف": 4918,
    "▁گچ": 4919,
    "ظلم": 4920,
    "صه": 4921,
    "احق": 4922,
    "لاج": 4923,
    "▁متوسل": 4924,
    "▁ارجح": 4925,
    "▁ببین": 4926,
    "▁بدبین": 4927,
    "نساء": 4928,
    "▁معالجات": 4929,
    "▁وفا": 4930,
    "▁کسرگردد": 4931,
    "▁آلو": 4932,
    "▁جهان": 4933,
    "لیت": 4934,
    "▁فهمید": 4935,
    "عل": 4936,
    "میه": 4937,
    "عصر": 4938,
    "▁تناس": 4939,
    "نظامی": 4940,
    "▁وآمد": 4941,
    "▁ارت": 4942,
    "▁هویدا": 4943,
    "▁سراسر": 4944,
    "خی": 4945,
    "▁اتوب": 4946,
    "وائ": 4947,
    "شایست": 4948,
    "▁نبرد": 4949,
    "خورده": 4950,
    "ارکا": 4951,
    "رب": 4952,
    "▁ابهامات": 4953,
    "▁منصف": 4954,
    "اقتضا": 4955,
    "▁عض": 4956,
    "▁سول": 4957,
    "▁رسول": 4958,
    "یافت": 4959,
    "▁تابلوها": 4960,
    "▁قی": 4961,
    "▁بط": 4962,
    "▁شهو": 4963,
    "▁پوشید": 4964,
    "▁فول": 4965,
    "کسر": 4966,
    "▁مخدوم": 4967,
    "نتر": 4968,
    "▁نخواه": 4969,
    "▁گذران": 4970,
    "▁برادرم": 4971,
    "▁سوزن": 4972,
    "▁نپذیر": 4973,
    "▁کاردا": 4974,
    "▁کاش": 4975,
    "▁تولیدکنند": 4976,
    "▁متعه": 4977,
    "لول": 4978,
    "▁عب": 4979,
    "▁محسو": 4980,
    "مو": 4981,
    "▁قیوم": 4982,
    "بوس": 4983,
    "▁برادرز": 4984,
    "اریه": 4985,
    "▁گرسن": 4986,
    "▁شناختن": 4987,
    "▁نکا": 4988,
    "▁مردان": 4989,
    "وشگاه": 4990,
    "▁پور": 4991,
    "▁دائ": 4992,
    "▁تسل": 4993,
    "تج": 4994,
    "الاستطاع": 4995,
    "▁تاز": 4996,
    "▁گیاه": 4997,
    "ایق": 4998,
    "سید": 4999,
    "▁چهارصدم": 5000,
    "علی": 5001,
    "عیین": 5002,
    "خاذ": 5003,
    "نع": 5004,
    "اسی": 5005,
    "انبار": 5006,
    "▁تفکر": 5007,
    "راج": 5008,
    "▁مجاوری": 5009,
    "▁حساسی": 5010,
    "▁انز": 5011,
    "اقرار": 5012,
    "جری": 5013,
    "گروه": 5014,
    "نحوی": 5015,
    "ابان": 5016,
    "▁پیگ": 5017,
    "▁اکی": 5018,
    "وقت": 5019,
    "▁سالب": 5020,
    "▁مسلما": 5021,
    "▁نفروخت": 5022,
    "ریر": 5023,
    "سوخ": 5024,
    "▁پوش": 5025,
    "یابی": 5026,
    "▁اث": 5027,
    "▁پیچید": 5028,
    "▁قرین": 5029,
    "راث": 5030,
    "محکومیت": 5031,
    "▁رادیو": 5032,
    "ونگ": 5033,
    "▁درح": 5034,
    "▁تعاقب": 5035,
    "▁اندک": 5036,
    "▁اسپ": 5037,
    "▁انع": 5038,
    "▁قل": 5039,
    "▁مرج": 5040,
    "▁دهگ": 5041,
    "▁تشی": 5042,
    "ارگ": 5043,
    "▁سطو": 5044,
    "ایر": 5045,
    "عرف": 5046,
    "قرارداد": 5047,
    "▁متروک": 5048,
    "یرکرد": 5049,
    "▁شکن": 5050,
    "▁جس": 5051,
    "دیدن": 5052,
    "▁شمس": 5053,
    "▁غیب": 5054,
    "یدا": 5055,
    "تان": 5056,
    "▁کت": 5057,
    "▁نها": 5058,
    "ورام": 5059,
    "تصف": 5060,
    "▁وارز": 5061,
    "▁ربود": 5062,
    "▁میبایست": 5063,
    "یص": 5064,
    "▁افزار": 5065,
    "کثر": 5066,
    "▁آمدن": 5067,
    "یث": 5068,
    "▁بتون": 5069,
    "اض": 5070,
    "▁اشتر": 5071,
    "دهن": 5072,
    "رنامه": 5073,
    "▁معلو": 5074,
    "طرفین": 5075,
    "عاملی": 5076,
    "▁گارد": 5077,
    "بالش": 5078,
    "اسخ": 5079,
    "▁متباد": 5080,
    "ادله": 5081,
    "▁مطم": 5082,
    "▁ارزی": 5083,
    "مسک": 5084,
    "▁شنا": 5085,
    "راشی": 5086,
    "▁پست": 5087,
    "زوم": 5088,
    "▁فح": 5089,
    "▁لاح": 5090,
    "مایم": 5091,
    "اما": 5092,
    "اخته": 5093,
    "▁متق": 5094,
    "▁جرای": 5095,
    "▁رابط": 5096,
    "بستر": 5097,
    "▁مک": 5098,
    "▁مانتو": 5099,
    "▁غیراز": 5100,
    "الا": 5101,
    "▁غیرت": 5102,
    "▁معذ": 5103,
    "▁عر": 5104,
    "رسید": 5105,
    "ستور": 5106,
    "سک": 5107,
    "▁طل": 5108,
    "▁یاس": 5109,
    "▁محکم": 5110,
    "▁عبار": 5111,
    "▁وار": 5112,
    "▁خدای": 5113,
    "▁الاول": 5114,
    "اکسی": 5115,
    "اجم": 5116,
    "زده": 5117,
    "فتن": 5118,
    "عب": 5119,
    "درخواست": 5120,
    "▁الوا": 5121,
    "رایی": 5122,
    "▁کشت": 5123,
    "▁نقاش": 5124,
    "اظهارات": 5125,
    "جزی": 5126,
    "نشاه": 5127,
    "▁ور": 5128,
    "نشد": 5129,
    "مود": 5130,
    "▁فقه": 5131,
    "عاقد": 5132,
    "▁متب": 5133,
    "حسو": 5134,
    "فرزند": 5135,
    "▁دک": 5136,
    "سیط": 5137,
    "ردیف": 5138,
    "▁امان": 5139,
    "▁ورش": 5140,
    "▁اتهامش": 5141,
    "پن": 5142,
    "▁الک": 5143,
    "ینی": 5144,
    "حرز": 5145,
    "اعتراض": 5146,
    "داده": 5147,
    "بیت": 5148,
    "▁پرت": 5149,
    "▁طو": 5150,
    "▁طلبی": 5151,
    "▁پوس": 5152,
    "قب": 5153,
    "▁ایم": 5154,
    "▁اگ": 5155,
    "مقررا": 5156,
    "تذکر": 5157,
    "ثبات": 5158,
    "▁عکسها": 5159,
    "لذ": 5160,
    "▁تیره": 5161,
    "نیست": 5162,
    "فرا": 5163,
    "▁نور": 5164,
    "▁سیدم": 5165,
    "محرز": 5166,
    "رفا": 5167,
    "خو": 5168,
    "▁غیرمن": 5169,
    "زیرا": 5170,
    "شخصا": 5171,
    "جل": 5172,
    "آی": 5173,
    "شناس": 5174,
    "▁خلق": 5175,
    "زوجه": 5176,
    "انش": 5177,
    "▁وش": 5178,
    "اضی": 5179,
    "دور": 5180,
    "نس": 5181,
    "▁عباس": 5182,
    "▁بگو": 5183,
    "▁مف": 5184,
    "▁کرا": 5185,
    "شر": 5186,
    "ناپذیر": 5187,
    "ایگان": 5188,
    "▁بعدال": 5189,
    "سو": 5190,
    "موضوع": 5191,
    "▁ثان": 5192,
    "▁دای": 5193,
    "خسارت": 5194,
    "▁ست": 5195,
    "▁ریز": 5196,
    "توک": 5197,
    "ضای": 5198,
    "کارگ": 5199,
    "▁کنوا": 5200,
    "لقی": 5201,
    "اذی": 5202,
    "اسناد": 5203,
    "▁عندالاس": 5204,
    "مطابق": 5205,
    "أخ": 5206,
    "رها": 5207,
    "تما": 5208,
    "▁زبا": 5209,
    "▁کاروان": 5210,
    "هش": 5211,
    "زوئی": 5212,
    "▁جهاز": 5213,
    "▁دریک": 5214,
    "▁اعل": 5215,
    "انتقال": 5216,
    "سمت": 5217,
    "ساسی": 5218,
    "▁باهم": 5219,
    "جشن": 5220,
    "مجازات": 5221,
    "اص": 5222,
    "لولی": 5223,
    "حم": 5224,
    "▁مآ": 5225,
    "▁سید": 5226,
    "اتهام": 5227,
    "▁کور": 5228,
    "تعرض": 5229,
    "ابل": 5230,
    "لکت": 5231,
    "راده": 5232,
    "تگاه": 5233,
    "جف": 5234,
    "موم": 5235,
    "طل": 5236,
    "ورا": 5237,
    "میز": 5238,
    "احراز": 5239,
    "رمانه": 5240,
    "▁معاو": 5241,
    "حمدی": 5242,
    "وایی": 5243,
    "مطروح": 5244,
    "احدی": 5245,
    "پار": 5246,
    "تعیین": 5247,
    "الو": 5248,
    "برند": 5249,
    "▁شرو": 5250,
    "فاص": 5251,
    "گردی": 5252,
    "پیوست": 5253,
    "شوی": 5254,
    "▁آزا": 5255,
    "▁صدرالاش": 5256,
    "ارع": 5257,
    "حی": 5258,
    "دفتر": 5259,
    "▁مرب": 5260,
    "مضی": 5261,
    "پوش": 5262,
    "رموج": 5263,
    "شریک": 5264,
    "▁سوئی": 5265,
    "صدقات": 5266,
    "حیط": 5267,
    "أخیر": 5268,
    "▁کوش": 5269,
    "یران": 5270,
    "خارج": 5271,
    "ضرب": 5272,
    "▁سرگر": 5273,
    "یاد": 5274,
    "درمحضر": 5275,
    "سم": 5276,
    "ظامی": 5277,
    "▁نکن": 5278,
    "▁ویز": 5279,
    "جسته": 5280,
    "▁مند": 5281,
    "یزی": 5282,
    "▁مصا": 5283,
    "لیف": 5284,
    "مقرر": 5285,
    "رائی": 5286,
    "▁فکر": 5287,
    "قدر": 5288,
    "▁درآ": 5289,
    "ناحی": 5290,
    "ربزرگ": 5291,
    "▁کبر": 5292,
    "▁آس": 5293,
    "برابر": 5294,
    "▁میز": 5295,
    "▁همچ": 5296,
    "سرقت": 5297,
    "عتبا": 5298,
    "قدم": 5299,
    "▁سیس": 5300,
    "لغ": 5301,
    "الدین": 5302,
    "▁باک": 5303,
    "ردبی": 5304,
    "دلایل": 5305,
    "ننموده": 5306,
    "▁فاسدا": 5307,
    "ادعای": 5308,
    "▁ضع": 5309,
    "تغییر": 5310,
    "ادام": 5311,
    "مستندات": 5312,
    "هیچ": 5313,
    "کامل": 5314,
    "▁رض": 5315,
    "▁وگ": 5316,
    "▁رب": 5317,
    "▁نامش": 5318,
    "تراک": 5319,
    "یین": 5320,
    "▁هری": 5321,
    "▁غیرمطل": 5322,
    "▁تصو": 5323,
    "اصلاح": 5324,
    "جدیدی": 5325,
    "▁متصرفی": 5326,
    "گار": 5327,
    "کلاس": 5328,
    "شهرداری": 5329,
    "مناسب": 5330,
    "شنام": 5331,
    "زندگی": 5332,
    "ثالث": 5333,
    "▁دومی": 5334,
    "▁تاری": 5335,
    "ذی": 5336,
    "نجا": 5337,
    "حاضر": 5338,
    "ستای": 5339,
    "▁اتوم": 5340,
    "▁مرسو": 5341,
    "ورتی": 5342,
    "▁نشست": 5343,
    "▁پری": 5344,
    "اخت": 5345,
    "حرک": 5346,
    "موارد": 5347,
    "تولد": 5348,
    "ندیس": 5349,
    "غایت": 5350,
    "▁فردو": 5351,
    "▁مهری": 5352,
    "دستور": 5353,
    "کور": 5354,
    "الس": 5355,
    "محتوی": 5356,
    "▁پلی": 5357,
    "گرن": 5358,
    "دریافت": 5359,
    "آورد": 5360,
    "نگی": 5361,
    "دارای": 5362,
    "هو": 5363,
    "▁خواهم": 5364,
    "شناسنامه": 5365,
    "نویس": 5366,
    "معا": 5367,
    "نکرده": 5368,
    "گند": 5369,
    "عوض": 5370,
    "آستان": 5371,
    "ادگی": 5372,
    "نادی": 5373,
    "رویی": 5374,
    "محکمه": 5375,
    "مالک": 5376,
    "ثانی": 5377,
    "▁منظر": 5378,
    "سارت": 5379,
    "بعد": 5380,
    "پنج": 5381,
    "وای": 5382,
    "تأمین": 5383,
    "دلالت": 5384,
    "▁نگهدار": 5385,
    "یسر": 5386,
    "بناء": 5387,
    "▁سرچ": 5388,
    "وش": 5389,
    "دستگاه": 5390,
    "▁وص": 5391,
    "▁دوماه": 5392,
    "تشریفات": 5393,
    "تداو": 5394,
    "اعمال": 5395,
    "استعلام": 5396,
    "انطباق": 5397,
    "▁تغ": 5398,
    "ناشی": 5399,
    "▁کانا": 5400,
    "زند": 5401,
    "حاصل": 5402,
    "پاسخ": 5403,
    "شور": 5404,
    "مسروق": 5405,
    "▁اظهارت": 5406,
    "زاد": 5407,
    "شرایط": 5408,
    "برائت": 5409,
    "▁برانگی": 5410,
    "بودی": 5411,
    "غل": 5412,
    "زن": 5413,
    "طع": 5414,
    "شهادت": 5415,
    "کیفیت": 5416,
    "مغا": 5417,
    "پو": 5418,
    "ارائ": 5419,
    "▁نر": 5420,
    "خریدار": 5421,
    "موافق": 5422,
    "هار": 5423,
    "▁عو": 5424,
    "▁مصد": 5425,
    "▁گا": 5426,
    "ضم": 5427,
    "▁بس": 5428,
    "اقت": 5429,
    "▁نجس": 5430,
    "اهانه": 5431,
    "نونی": 5432,
    "شغل": 5433,
    "نسل": 5434,
    "قیقا": 5435,
    "ثمن": 5436,
    "▁اتی": 5437,
    "خبر": 5438,
    "▁پردا": 5439,
    "مردود": 5440,
    "▁خد": 5441,
    "ترتیب": 5442,
    "زنی": 5443,
    "برا": 5444,
    "ارتباط": 5445,
    "اطلاع": 5446,
    "نن": 5447,
    "مآل": 5448,
    "عبارت": 5449,
    "▁جاس": 5450,
    "▁یکسا": 5451,
    "خرید": 5452,
    "کشاورز": 5453,
    "▁مرحل": 5454,
    "پایان": 5455,
    "شا": 5456,
    "اجرائی": 5457,
    "برگ": 5458,
    "▁اتها": 5459,
    "مأمور": 5460,
    "▁پرداخته": 5461,
    "▁گری": 5462,
    "مبنای": 5463,
    "ویی": 5464,
    "سکن": 5465,
    "▁حک": 5466,
    "موقوف": 5467,
    "صوص": 5468,
    "▁مدی": 5469,
    "موقت": 5470,
    "سوء": 5471,
    "امکان": 5472,
    "جو": 5473,
    "ردا": 5474,
    "غی": 5475,
    "▁ظر": 5476,
    "مدلل": 5477,
    "▁برگردان": 5478,
    "کارشناسان": 5479,
    "▁ضرور": 5480,
    "▁نوشت": 5481,
    "خروج": 5482,
    "خصص": 5483,
    "تولید": 5484,
    "▁شناسنام": 5485,
    "▁انسا": 5486,
    "ترجم": 5487,
    "ذر": 5488,
    "تقاضا": 5489,
    "مشارالیها": 5490,
    "کشف": 5491,
    "▁مستحدث": 5492,
    "ماترک": 5493,
    "▁مغاز": 5494,
    "مقدم": 5495,
    "انگر": 5496,
    "اضاف": 5497,
    "استحقاق": 5498,
    "حقوقی": 5499,
    "▁درجلس": 5500,
    "همسر": 5501,
    "دراختیار": 5502,
    "ممنوع": 5503,
    "▁توأما": 5504,
    "نگرفته": 5505,
    "اخ": 5506,
    "مصداق": 5507,
    "علت": 5508,
    "مجوز": 5509,
    "ابرا": 5510,
    "دادن": 5511,
    "...": 5512,
    "دگا": 5513,
    "▁اشار": 5514,
    "وراثت": 5515,
    "متداعی": 5516,
    "شأ": 5517,
    "نهم": 5518,
    "نخواهد": 5519,
    "▁دادخو": 5520,
    "خلاص": 5521,
    "اشته": 5522,
    "سفید": 5523,
    "آگاه": 5524,
    "نیافته": 5525,
    "تفریط": 5526,
    "تجاوز": 5527,
    "نقلاب": 5528,
    "تودیع": 5529,
    "کودک": 5530,
    "تحریر": 5531,
    "دائم": 5532,
    "تخلف": 5533,
    "فرزندان": 5534,
    "بیمارستان": 5535,
    "گناه": 5536,
    "▁مینمای": 5537,
    "وست": 5538,
    "▁دید": 5539,
    "کارگر": 5540,
    "نگهبان": 5541,
    "عقی": 5542,
    "خودش": 5543,
    "سلاح": 5544,
    "ایام": 5545,
    "▁بوکا": 5546,
    "▁پاسخگو": 5547,
    "پدر": 5548,
    "سپرده": 5549,
    "خیار": 5550,
    "▁تأیی": 5551,
    "توانست": 5552,
    "▁هنر": 5553,
    "قدیم": 5554,
    "دهای": 5555,
    "خانوادگ": 5556,
    "نفق": 5557,
    "مسئول": 5558,
    "اطلاعات": 5559,
    "فهمید": 5560,
    "▁محتر": 5561,
    "دانست": 5562,
    "▁متوفا": 5563,
    "مقدور": 5564,
    "▁ثم": 5565,
    "انقطاع": 5566,
    "ثمر": 5567,
    "پول": 5568,
    "▁محمو": 5569,
    "مستاجر": 5570,
    "▁معل": 5571,
    "▁همسای": 5572,
    "▁نیافت": 5573,
    "شاخه": 5574,
    "شناخت": 5575,
    "کارمند": 5576,
    "نتقال": 5577,
    "اشتراک": 5578,
    "▁نط": 5579,
    "منطقی": 5580,
    "▁دادگ": 5581,
    "▁مبادل": 5582,
    "مکالم": 5583,
    "اسلامی": 5584,
    "نسور": 5585,
    "گن": 5586,
    "▁شاخ": 5587,
    "▁جواهرا": 5588,
    "پیچ": 5589,
    "مش": 5590,
    "▁اعترا": 5591,
    "قاپی": 5592,
    "ردی": 5593,
    "نداشتن": 5594,
    "▁سوئ": 5595,
    "▁خسارا": 5596,
    "محصن": 5597,
    "واط": 5598,
    "▁حاض": 5599,
    "ضرور": 5600,
    "بیه": 5601,
    "وخته": 5602,
    "▁قدرمت": 5603,
    "▁محجو": 5604,
    "ارض": 5605,
    "مطالبات": 5606,
    "ذاشتن": 5607,
    "▁عزیز": 5608,
    "▁پو": 5609,
    "حفاظ": 5610,
    "▁منفرد": 5611,
    "تشهادیه": 5612,
    "فتر": 5613,
    "▁فرآور": 5614,
    "▁تخت": 5615,
    "▁صورتمج": 5616,
    "ارش": 5617,
    "▁اقر": 5618,
    "ویز": 5619,
    "اسفل": 5620,
    "چاق": 5621,
    "یرفروش": 5622,
    "روند": 5623,
    "لمن": 5624,
    "شعار": 5625,
    "ثیر": 5626,
    "داو": 5627,
    "اخرا": 5628,
    "ءعلی": 5629,
    "دنبال": 5630,
    "خلی": 5631,
    "▁تمل": 5632,
    "▁تعهداتش": 5633,
    "▁وخا": 5634,
    "▁نمیتوان": 5635,
    "▁کامپ": 5636,
    "نوشته": 5637,
    "عترض": 5638,
    "امپو": 5639,
    "لزام": 5640,
    "باغ": 5641,
    "▁بید": 5642,
    "▁استشهادی": 5643,
    "نکا": 5644,
    "صف": 5645,
    "شناسان": 5646,
    "سیل": 5647,
    "▁تنظ": 5648,
    "▁میگرد": 5649,
    "▁معقو": 5650,
    "▁الکتر": 5651,
    "سلح": 5652,
    "حراز": 5653,
    "ودکا": 5654,
    "▁منقو": 5655,
    "جود": 5656,
    "مفید": 5657,
    "لیتر": 5658,
    "▁دون": 5659,
    "اریخ": 5660,
    "شهرک": 5661,
    "نیامد": 5662,
    "کیلو": 5663,
    "▁چنا": 5664,
    "قدمات": 5665,
    "▁ازدادسرا": 5666,
    "ودکش": 5667,
    "▁تجد": 5668,
    "کاربرد": 5669,
    "غایر": 5670,
    "لق": 5671,
    "▁دروغی": 5672,
    "▁ننمای": 5673,
    "عمو": 5674,
    "منه": 5675,
    "▁معم": 5676,
    "قلاب": 5677,
    "وره": 5678,
    "جدی": 5679,
    "فتاده": 5680,
    "▁سلیم": 5681,
    "شق": 5682,
    "طاق": 5683,
    "هیا": 5684,
    "جنس": 5685,
    "غو": 5686,
    "ساکن": 5687,
    "یاورد": 5688,
    "▁مستحدثا": 5689,
    "▁فرز": 5690,
    "محسو": 5691,
    "▁سنخ": 5692,
    "▁تخری": 5693,
    "امنا": 5694,
    "▁هنگ": 5695,
    "جنای": 5696,
    "▁فس": 5697,
    "فزای": 5698,
    "▁اخت": 5699,
    "▁حساس": 5700,
    "سرو": 5701,
    "سرق": 5702,
    "فسا": 5703,
    "یض": 5704,
    "فعال": 5705,
    "▁آفری": 5706,
    "خوردن": 5707,
    "البین": 5708,
    "▁شخ": 5709,
    "خواندگ": 5710,
    "لواس": 5711,
    "مکین": 5712,
    "▁پیشا": 5713,
    "▁مناق": 5714,
    "اتحا": 5715,
    "قراردادی": 5716,
    "نقد": 5717,
    "صادف": 5718,
    "▁متبای": 5719,
    "رفی": 5720,
    "▁تذکرا": 5721,
    "زار": 5722,
    "▁اتم": 5723,
    "اگر": 5724,
    "مقابل": 5725,
    "▁آغ": 5726,
    "رضا": 5727,
    "وچ": 5728,
    "شناسی": 5729,
    "وچه": 5730,
    "▁خت": 5731,
    "بنیاد": 5732,
    "▁براین": 5733,
    "راست": 5734,
    "▁ایض": 5735,
    "ننده": 5736,
    "نگو": 5737,
    "محروم": 5738,
    "▁نمیباش": 5739,
    "شراف": 5740,
    "درجا": 5741,
    "آسیا": 5742,
    "فیف": 5743,
    "چر": 5744,
    "▁فیما": 5745,
    "▁پیشگ": 5746,
    "صوب": 5747,
    "قرارگرفت": 5748,
    "کاب": 5749,
    "▁فرور": 5750,
    "سازم": 5751,
    "▁اشترا": 5752,
    "باد": 5753,
    "▁الق": 5754,
    "اجبار": 5755,
    "مکش": 5756,
    "▁سار": 5757,
    "جمی": 5758,
    "مار": 5759,
    "اوض": 5760,
    "توار": 5761,
    "افوی": 5762,
    "اسا": 5763,
    "تابع": 5764,
    "▁پرا": 5765,
    "▁تحو": 5766,
    "تجوی": 5767,
    "بدو": 5768,
    "عارض": 5769,
    "روهای": 5770,
    "▁تمس": 5771,
    "▁کرم": 5772,
    "مدیر": 5773,
    "▁متشک": 5774,
    "▁سرو": 5775,
    "▁متوسط": 5776,
    "▁کنی": 5777,
    "رض": 5778,
    "▁کال": 5779,
    "▁مدن": 5780,
    "ساسا": 5781,
    "سیما": 5782,
    "نندگ": 5783,
    "معین": 5784,
    "▁دیدگ": 5785,
    "فعل": 5786,
    "شهری": 5787,
    "▁جست": 5788,
    "▁الما": 5789,
    "▁معای": 5790,
    "گذارد": 5791,
    "اظر": 5792,
    "بزه": 5793,
    "▁الحا": 5794,
    "ادار": 5795,
    "ورت": 5796,
    "حدودا": 5797,
    "▁دستش": 5798,
    "▁مجد": 5799,
    "▁غیرمت": 5800,
    "گیلا": 5801,
    "هکار": 5802,
    "▁وز": 5803,
    "▁خواندگ": 5804,
    "حاد": 5805,
    "پز": 5806,
    "سلمان": 5807,
    "انگیز": 5808,
    "▁بلاا": 5809,
    "▁مخت": 5810,
    "▁سنن": 5811,
    "▁گزا": 5812,
    "▁ذک": 5813,
    "معوض": 5814,
    "نچ": 5815,
    "رمیت": 5816,
    "یگ": 5817,
    "▁گش": 5818,
    "▁وسا": 5819,
    "کت": 5820,
    "غالب": 5821,
    "مد": 5822,
    "دیم": 5823,
    "صنف": 5824,
    "▁هفتادو": 5825,
    "▁ادل": 5826,
    "▁متع": 5827,
    "سیار": 5828,
    "▁شرکتها": 5829,
    "▁برر": 5830,
    "▁مرجو": 5831,
    "▁ندانست": 5832,
    "▁منسو": 5833,
    "▁برگز": 5834,
    "پیوسته": 5835,
    "تهی": 5836,
    "ایران": 5837,
    "پایی": 5838,
    "▁زان": 5839,
    "لس": 5840,
    "▁زندا": 5841,
    "مض": 5842,
    "پرو": 5843,
    "▁همگ": 5844,
    "چهار": 5845,
    "راس": 5846,
    "ساخته": 5847,
    "هرگ": 5848,
    "عال": 5849,
    "▁وچه": 5850,
    "زان": 5851,
    "عاف": 5852,
    "تخل": 5853,
    "▁مستف": 5854,
    "اشت": 5855,
    "▁تط": 5856,
    "چشم": 5857,
    "جنب": 5858,
    "▁قرارگرفتن": 5859,
    "▁مضمو": 5860,
    "ایست": 5861,
    "متر": 5862,
    "▁دس": 5863,
    "واقعی": 5864,
    "▁آزم": 5865,
    "مطلع": 5866,
    "▁رهگ": 5867,
    "مست": 5868,
    "▁صر": 5869,
    "▁کارو": 5870,
    "▁قدم": 5871,
    "▁زم": 5872,
    "▁امتیا": 5873,
    "موجودی": 5874,
    "▁وصی": 5875,
    "هوی": 5876,
    "لعق": 5877,
    "واصل": 5878,
    "وشی": 5879,
    "نود": 5880,
    "رین": 5881,
    "بلی": 5882,
    "البی": 5883,
    "قیب": 5884,
    "الکل": 5885,
    "لزوما": 5886,
    "فوت": 5887,
    "ردو": 5888,
    "بو": 5889,
    "فای": 5890,
    "▁فرزندم": 5891,
    "▁العم": 5892,
    "قدان": 5893,
    "غذا": 5894,
    "▁تفر": 5895,
    "▁نرس": 5896,
    "گوی": 5897,
    "روری": 5898,
    "اقد": 5899,
    "فتم": 5900,
    "صیت": 5901,
    "▁سازم": 5902,
    "▁توج": 5903,
    "نهاده": 5904,
    "عضا": 5905,
    "▁لم": 5906,
    "قلب": 5907,
    "کسی": 5908,
    "▁ود": 5909,
    "▁بام": 5910,
    "▁ودی": 5911,
    "کفا": 5912,
    "▁اتو": 5913,
    "▁خس": 5914,
    "رسیده": 5915,
    "جع": 5916,
    "صو": 5917,
    "▁صو": 5918,
    "ضما": 5919,
    "ردار": 5920,
    "دانسته": 5921,
    "▁مشتر": 5922,
    "حافظ": 5923,
    "وقعی": 5924,
    "عاونی": 5925,
    "قرا": 5926,
    "ارز": 5927,
    "▁بع": 5928,
    "راش": 5929,
    "اعد": 5930,
    "▁نج": 5931,
    "حو": 5932,
    "سائل": 5933,
    "کسب": 5934,
    "دبی": 5935,
    "دایر": 5936,
    "امنی": 5937,
    "امت": 5938,
    "▁شهربا": 5939,
    "▁استفا": 5940,
    "دیوان": 5941,
    "عوی": 5942,
    "▁نهادی": 5943,
    "واه": 5944,
    "حا": 5945,
    "▁اشع": 5946,
    "▁تعم": 5947,
    "اجت": 5948,
    "کارم": 5949,
    "▁دادی": 5950,
    "بول": 5951,
    "اداری": 5952,
    "▁راب": 5953,
    "وام": 5954,
    "▁همس": 5955,
    "محضر": 5956,
    "دیگر": 5957,
    "نضم": 5958,
    "▁امنی": 5959,
    "واخواه": 5960,
    "▁وعد": 5961,
    "▁گذ": 5962,
    "یال": 5963,
    "▁نگیر": 5964,
    "▁کاف": 5965,
    "بخ": 5966,
    "یکس": 5967,
    "بروی": 5968,
    "بایع": 5969,
    "وقو": 5970,
    "میل": 5971,
    "گستر": 5972,
    "فره": 5973,
    "تنا": 5974,
    "▁مرو": 5975,
    "حان": 5976,
    "رافع": 5977,
    "▁تدر": 5978,
    "ارسال": 5979,
    "رخور": 5980,
    "ارگیر": 5981,
    "لیون": 5982,
    "مخد": 5983,
    "واق": 5984,
    "یفر": 5985,
    "غف": 5986,
    "▁ارو": 5987,
    "▁دیواره": 5988,
    "▁نامی": 5989,
    "سوز": 5990,
    "داره": 5991,
    "عای": 5992,
    "▁ازآقای": 5993,
    "▁یکس": 5994,
    "رال": 5995,
    "ستر": 5996,
    "تح": 5997,
    "▁تجا": 5998,
    "اجمال": 5999,
    "موجود": 6000,
    "فراز": 6001,
    "ریکا": 6002,
    "العم": 6003,
    "سق": 6004,
    "پوشا": 6005,
    "شش": 6006,
    "▁اولیا": 6007,
    "واردی": 6008,
    "فتو": 6009,
    "▁دربا": 6010,
    "▁رسی": 6011,
    "رگیل": 6012,
    "معترض": 6013,
    "سپ": 6014,
    "ئو": 6015,
    "اداره": 6016,
    "رجه": 6017,
    "ریب": 6018,
    "مبن": 6019,
    "جده": 6020,
    "مدید": 6021,
    "ایستگ": 6022,
    "حری": 6023,
    "راب": 6024,
    "▁قرارها": 6025,
    "قدام": 6026,
    "الش": 6027,
    "ادیه": 6028,
    "راز": 6029,
    "فوق": 6030,
    "▁مترم": 6031,
    "▁مجل": 6032,
    "شاع": 6033,
    "میسر": 6034,
    "صدر": 6035,
    "مری": 6036,
    "بارت": 6037,
    "زوج": 6038,
    "اخیر": 6039,
    "▁هرک": 6040,
    "▁برند": 6041,
    "وصو": 6042,
    "شرت": 6043,
    "رعی": 6044,
    "▁گس": 6045,
    "نش": 6046,
    "سجل": 6047,
    "ادل": 6048,
    "نظرخواه": 6049,
    "واج": 6050,
    "▁سران": 6051,
    "کمال": 6052,
    "ویش": 6053,
    "▁موس": 6054,
    "▁زندگ": 6055,
    "توی": 6056,
    "تفه": 6057,
    "سنامه": 6058,
    "امد": 6059,
    "الم": 6060,
    "ورم": 6061,
    "اوراق": 6062,
    "اضرار": 6063,
    "مرا": 6064,
    "▁عندالا": 6065,
    "ازد": 6066,
    "▁دستورا": 6067,
    "بردا": 6068,
    "▁وض": 6069,
    "تعزیر": 6070,
    "وص": 6071,
    "▁ترکی": 6072,
    "▁ثب": 6073,
    "▁متوق": 6074,
    "نوعیت": 6075,
    "رکین": 6076,
    "▁مگ": 6077,
    "صولا": 6078,
    "ثی": 6079,
    "چی": 6080,
    "اعلا": 6081,
    "زع": 6082,
    "انشگ": 6083,
    "ارا": 6084,
    "▁نامتعا": 6085,
    "محرم": 6086,
    "▁رسیدها": 6087,
    "▁تاپ": 6088,
    "▁صندل": 6089,
    "▁خاط": 6090,
    "مندرج": 6091,
    "مسار": 6092,
    "▁چا": 6093,
    "فقی": 6094,
    "جلس": 6095,
    "کالت": 6096,
    "▁مهره": 6097,
    "▁مجا": 6098,
    "ترک": 6099,
    "ضامنی": 6100,
    "ازع": 6101,
    "دیدی": 6102,
    "ماره": 6103,
    "نامبرد": 6104,
    "▁تعار": 6105,
    "فاع": 6106,
    "اتیک": 6107,
    "لوا": 6108,
    "واد": 6109,
    "مسجل": 6110,
    "ابطال": 6111,
    "درو": 6112,
    "تار": 6113,
    "کد": 6114,
    "آرا": 6115,
    "تمل": 6116,
    "دفات": 6117,
    "دوم": 6118,
    "خان": 6119,
    "ربا": 6120,
    "▁عدا": 6121
  }
}